{
  "version": "1.0",
  "truncation": null,
  "padding": null,
  "added_tokens": [
    {
      "id": 0,
      "content": "[PAD]",
      "single_word": false,
      "lstrip": false,
      "rstrip": false,
      "normalized": false,
      "special": true
    },
    {
      "id": 1,
      "content": "[UNK]",
      "single_word": false,
      "lstrip": false,
      "rstrip": false,
      "normalized": false,
      "special": true
    },
    {
      "id": 2,
      "content": "[CLS]",
      "single_word": false,
      "lstrip": false,
      "rstrip": false,
      "normalized": false,
      "special": true
    },
    {
      "id": 3,
      "content": "[SEP]",
      "single_word": false,
      "lstrip": false,
      "rstrip": false,
      "normalized": false,
      "special": true
    },
    {
      "id": 4,
      "content": "[MASK]",
      "single_word": false,
      "lstrip": false,
      "rstrip": false,
      "normalized": false,
      "special": true
    },
    {
      "id": 5,
      "content": "[BOS]",
      "single_word": false,
      "lstrip": false,
      "rstrip": false,
      "normalized": false,
      "special": true
    },
    {
      "id": 6,
      "content": "[EOS]",
      "single_word": false,
      "lstrip": false,
      "rstrip": false,
      "normalized": false,
      "special": true
    }
  ],
  "normalizer": {
    "type": "Sequence",
    "normalizers": [
      {
        "type": "Lowercase"
      }
    ]
  },
  "pre_tokenizer": {
    "type": "Whitespace"
  },
  "post_processor": null,
  "decoder": null,
  "model": {
    "type": "BPE",
    "dropout": null,
    "unk_token": null,
    "continuing_subword_prefix": null,
    "end_of_word_suffix": null,
    "fuse_unk": false,
    "byte_fallback": false,
    "ignore_merges": false,
    "vocab": {
      "[PAD]": 0,
      "[UNK]": 1,
      "[CLS]": 2,
      "[SEP]": 3,
      "[MASK]": 4,
      "[BOS]": 5,
      "[EOS]": 6,
      "!": 7,
      "\"": 8,
      "#": 9,
      "$": 10,
      "%": 11,
      "&": 12,
      "'": 13,
      "(": 14,
      ")": 15,
      "*": 16,
      "+": 17,
      ",": 18,
      "-": 19,
      ".": 20,
      "/": 21,
      "0": 22,
      "1": 23,
      "2": 24,
      "3": 25,
      "4": 26,
      "5": 27,
      "6": 28,
      "7": 29,
      "8": 30,
      "9": 31,
      ":": 32,
      ";": 33,
      "<": 34,
      "=": 35,
      ">": 36,
      "?": 37,
      "@": 38,
      "[": 39,
      "\\": 40,
      "]": 41,
      "^": 42,
      "_": 43,
      "a": 44,
      "b": 45,
      "c": 46,
      "d": 47,
      "e": 48,
      "f": 49,
      "g": 50,
      "h": 51,
      "i": 52,
      "j": 53,
      "k": 54,
      "l": 55,
      "m": 56,
      "n": 57,
      "o": 58,
      "p": 59,
      "q": 60,
      "r": 61,
      "s": 62,
      "t": 63,
      "u": 64,
      "v": 65,
      "w": 66,
      "x": 67,
      "y": 68,
      "z": 69,
      "{": 70,
      "|": 71,
      "}": 72,
      "~": 73,
      "¡": 74,
      "¢": 75,
      "£": 76,
      "¥": 77,
      "­": 78,
      "°": 79,
      "±": 80,
      "²": 81,
      "³": 82,
      "µ": 83,
      "·": 84,
      "½": 85,
      "×": 86,
      "ß": 87,
      "à": 88,
      "á": 89,
      "â": 90,
      "ã": 91,
      "ä": 92,
      "æ": 93,
      "ç": 94,
      "è": 95,
      "é": 96,
      "ê": 97,
      "ë": 98,
      "ì": 99,
      "í": 100,
      "î": 101,
      "ï": 102,
      "ð": 103,
      "ñ": 104,
      "ò": 105,
      "ó": 106,
      "ô": 107,
      "õ": 108,
      "ö": 109,
      "ù": 110,
      "ú": 111,
      "ü": 112,
      "ý": 113,
      "ā": 114,
      "ă": 115,
      "ć": 116,
      "č": 117,
      "đ": 118,
      "ē": 119,
      "ğ": 120,
      "ĩ": 121,
      "ī": 122,
      "ō": 123,
      "ś": 124,
      "ũ": 125,
      "ū": 126,
      "ơ": 127,
      "ư": 128,
      "ǎ": 129,
      "ʻ": 130,
      "ʼ": 131,
      "ː": 132,
      "α": 133,
      "β": 134,
      "γ": 135,
      "δ": 136,
      "ṇ": 137,
      "ạ": 138,
      "ả": 139,
      "ấ": 140,
      "ầ": 141,
      "ẩ": 142,
      "ẫ": 143,
      "ậ": 144,
      "ắ": 145,
      "ằ": 146,
      "ẳ": 147,
      "ẵ": 148,
      "ặ": 149,
      "ẹ": 150,
      "ẻ": 151,
      "ẽ": 152,
      "ế": 153,
      "ề": 154,
      "ể": 155,
      "ễ": 156,
      "ệ": 157,
      "ỉ": 158,
      "ị": 159,
      "ọ": 160,
      "ỏ": 161,
      "ố": 162,
      "ồ": 163,
      "ổ": 164,
      "ỗ": 165,
      "ộ": 166,
      "ớ": 167,
      "ờ": 168,
      "ở": 169,
      "ỡ": 170,
      "ợ": 171,
      "ụ": 172,
      "ủ": 173,
      "ứ": 174,
      "ừ": 175,
      "ử": 176,
      "ữ": 177,
      "ự": 178,
      "ỳ": 179,
      "ỵ": 180,
      "ỷ": 181,
      "ỹ": 182,
      "​": 183,
      "‑": 184,
      "‒": 185,
      "–": 186,
      "—": 187,
      "‘": 188,
      "’": 189,
      "“": 190,
      "”": 191,
      "†": 192,
      "…": 193,
      "‰": 194,
      "′": 195,
      "″": 196,
      "⁄": 197,
      "€": 198,
      "←": 199,
      "→": 200,
      "∀": 201,
      "∈": 202,
      "−": 203,
      "∧": 204,
      "∨": 205,
      "≈": 206,
      "≠": 207,
      "≤": 208,
      "⟨": 209,
      "⟩": 210,
      "、": 211,
      "。": 212,
      "「": 213,
      "」": 214,
      "（": 215,
      "）": 216,
      "，": 217,
      "：": 218,
      "ng": 219,
      "nh": 220,
      "th": 221,
      "ch": 222,
      "tr": 223,
      "ph": 224,
      "kh": 225,
      "và": 226,
      "iệ": 227,
      "qu": 228,
      "gi": 229,
      "ác": 230,
      "ông": 231,
      "là": 232,
      "ên": 233,
      "củ": 234,
      "ong": 235,
      "của": 236,
      "các": 237,
      "ườ": 238,
      "iế": 239,
      "trong": 240,
      "ượ": 241,
      "ân": 242,
      "uy": 243,
      "ại": 244,
      "an": 245,
      "ột": 246,
      "có": 247,
      "iề": 248,
      "một": 249,
      "ới": 250,
      "ược": 251,
      "ất": 252,
      "iều": 253,
      "được": 254,
      "sự": 255,
      "việ": 256,
      "ày": 257,
      "inh": 258,
      "iên": 259,
      "ành": 260,
      "ình": 261,
      "ười": 262,
      "ững": 263,
      "nă": 264,
      "người": 265,
      "iể": 266,
      "đã": 267,
      "ngh": 268,
      "ần": 269,
      "những": 270,
      "ươ": 271,
      "cho": 272,
      "ương": 273,
      "ực": 274,
      "đế": 275,
      "ho": 276,
      "không": 277,
      "ính": 278,
      "iện": 279,
      "ường": 280,
      "ướ": 281,
      "phá": 282,
      "độ": 283,
      "với": 284,
      "iến": 285,
      "ức": 286,
      "am": 287,
      "này": 288,
      "năm": 289,
      "ốc": 290,
      "ai": 291,
      "thể": 292,
      "họ": 293,
      "ra": 294,
      "anh": 295,
      "nhiều": 296,
      "việc": 297,
      "ao": 298,
      "ản": 299,
      "ật": 300,
      "ống": 301,
      "đến": 302,
      "ung": 303,
      "ải": 304,
      "từ": 305,
      "thành": 306,
      "ền": 307,
      "ước": 308,
      "ăn": 309,
      "ách": 310,
      "quốc": 311,
      "ầu": 312,
      "ời": 313,
      "quan": 314,
      "ang": 315,
      "ết": 316,
      "chính": 317,
      "vào": 318,
      "ối": 319,
      "để": 320,
      "ộc": 321,
      "như": 322,
      "ài": 323,
      "thu": 324,
      "ay": 325,
      "au": 326,
      "công": 327,
      "ận": 328,
      "ội": 329,
      "đị": 330,
      "mà": 331,
      "òn": 332,
      "ây": 333,
      "chỉ": 334,
      "thá": 335,
      "ập": 336,
      "ạo": 337,
      "àng": 338,
      "còn": 339,
      "về": 340,
      "on": 341,
      "quy": 342,
      "đó": 343,
      "sử": 344,
      "iển": 345,
      "ùng": 346,
      "gia": 347,
      "âu": 348,
      "ơn": 349,
      "học": 350,
      "dân": 351,
      "phát": 352,
      "nam": 353,
      "nhà": 354,
      "ổi": 355,
      "ịch": 356,
      "giá": 357,
      "văn": 358,
      "cu": 359,
      "cũ": 360,
      "àn": 361,
      "khi": 362,
      "óa": 363,
      "ọng": 364,
      "tiế": 365,
      "hiện": 366,
      "ục": 367,
      "nguy": 368,
      "iệu": 369,
      "hội": 370,
      "đại": 371,
      "hóa": 372,
      "in": 373,
      "cũng": 374,
      "lo": 375,
      "quân": 376,
      "động": 377,
      "thời": 378,
      "cả": 379,
      "ắc": 380,
      "thường": 381,
      "ôn": 382,
      "trọng": 383,
      "nước": 384,
      "ượng": 385,
      "ánh": 386,
      "trung": 387,
      "ồng": 388,
      "thế": 389,
      "tại": 390,
      "ằng": 391,
      "ặc": 392,
      "ảo": 393,
      "lý": 394,
      "lại": 395,
      "ôi": 396,
      "triển": 397,
      "trị": 398,
      "ưở": 399,
      "việt": 400,
      "ưởng": 401,
      "iê": 402,
      "âm": 403,
      "đầu": 404,
      "tế": 405,
      "ích": 406,
      "số": 407,
      "khác": 408,
      "iết": 409,
      "tạo": 410,
      "nhân": 411,
      "dụ": 412,
      "do": 413,
      "án": 414,
      "to": 415,
      "định": 416,
      "làm": 417,
      "ễn": 418,
      "sau": 419,
      "giữ": 420,
      "ẫn": 421,
      "20": 422,
      "hơn": 423,
      "lớ": 424,
      "úc": 425,
      "chiến": 426,
      "eo": 427,
      "chú": 428,
      "ạn": 429,
      "cách": 430,
      "cuộc": 431,
      "nhất": 432,
      "úp": 433,
      "tổ": 434,
      "ảng": 435,
      "ạt": 436,
      "điều": 437,
      "19": 438,
      "er": 439,
      "kinh": 440,
      "thực": 441,
      "bị": 442,
      "hệ": 443,
      "dụng": 444,
      "giúp": 445,
      "ấy": 446,
      "lịch": 447,
      "trên": 448,
      "di": 449,
      "iểu": 450,
      "lớn": 451,
      "ua": 452,
      "ấn": 453,
      "đồng": 454,
      "un": 455,
      "ạng": 456,
      "ngày": 457,
      "ăng": 458,
      "iệt": 459,
      "ộng": 460,
      "cơ": 461,
      "pháp": 462,
      "ấp": 463,
      "thống": 464,
      "xu": 465,
      "kho": 466,
      "theo": 467,
      "sinh": 468,
      "phần": 469,
      "hình": 470,
      "đề": 471,
      "ar": 472,
      "en": 473,
      "thức": 474,
      "ặt": 475,
      "vực": 476,
      "quyền": 477,
      "hợ": 478,
      "cao": 479,
      "tự": 480,
      "con": 481,
      "hợp": 482,
      "nó": 483,
      "vị": 484,
      "bộ": 485,
      "xã": 486,
      "iệp": 487,
      "giáo": 488,
      "ngo": 489,
      "tháng": 490,
      "bản": 491,
      "al": 492,
      "giữa": 493,
      "thái": 494,
      "khu": 495,
      "kỳ": 496,
      "hành": 497,
      "truy": 498,
      "ơi": 499,
      "trình": 500,
      "iểm": 501,
      "ảnh": 502,
      "tuy": 503,
      "ứng": 504,
      "ái": 505,
      "ấu": 506,
      "sản": 507,
      "năng": 508,
      "lập": 509,
      "trường": 510,
      "lực": 511,
      "dự": 512,
      "bảo": 513,
      "phải": 514,
      "kết": 515,
      "áng": 516,
      "sống": 517,
      "ào": 518,
      "ọi": 519,
      "nguyên": 520,
      "lu": 521,
      "chủ": 522,
      "thông": 523,
      "unk": 524,
      "minh": 525,
      "lượng": 526,
      "giới": 527,
      "ạnh": 528,
      "iệm": 529,
      "át": 530,
      "ia": 531,
      "hai": 532,
      "ồn": 533,
      "hoàng": 534,
      "qua": 535,
      "liên": 536,
      "ạc": 537,
      "trở": 538,
      "chức": 539,
      "đất": 540,
      "lê": 541,
      "tiếng": 542,
      "đối": 543,
      "phong": 544,
      "địa": 545,
      "nhau": 546,
      "iền": 547,
      "tính": 548,
      "ẩm": 549,
      "iêu": 550,
      "hàng": 551,
      "chuy": 552,
      "vật": 553,
      "ắt": 554,
      "đổi": 555,
      "mới": 556,
      "chúng": 557,
      "hưởng": 558,
      "00": 559,
      "cứ": 560,
      "tranh": 561,
      "tác": 562,
      "phương": 563,
      "em": 564,
      "châu": 565,
      "ếu": 566,
      "hiệu": 567,
      "xuất": 568,
      "òng": 569,
      "giải": 570,
      "nhưng": 571,
      "ta": 572,
      "),": 573,
      "nghệ": 574,
      "bằng": 575,
      "truyền": 576,
      "nghĩ": 577,
      "nguyễn": 578,
      "thủ": 579,
      "tư": 580,
      "nên": 581,
      "rằng": 582,
      "nhận": 583,
      "nghiệp": 584,
      "thị": 585,
      "cùng": 586,
      "toàn": 587,
      "nhiên": 588,
      "tiếp": 589,
      "loại": 590,
      "tông": 591,
      "tu": 592,
      "cầu": 593,
      "đo": 594,
      "mình": 595,
      "ưa": 596,
      "tin": 597,
      "cứu": 598,
      "thứ": 599,
      "vua": 600,
      "rất": 601,
      "đông": 602,
      "sách": 603,
      "triều": 604,
      "trước": 605,
      "nghĩa": 606,
      "bắc": 607,
      "es": 608,
      "nền": 609,
      "ện": 610,
      "dẫn": 611,
      "thuật": 612,
      "tây": 613,
      "đạo": 614,
      "co": 615,
      "nổi": 616,
      "cộng": 617,
      "ĩnh": 618,
      "mang": 619,
      "hoặc": 620,
      "đánh": 621,
      "vi": 622,
      "ngoài": 623,
      "thay": 624,
      "ậu": 625,
      "tiên": 626,
      "ngữ": 627,
      "ển": 628,
      "ướng": 629,
      "sẽ": 630,
      "cần": 631,
      "giả": 632,
      "thấy": 633,
      "biến": 634,
      "nơi": 635,
      "el": 636,
      "nghiên": 637,
      "im": 638,
      "trần": 639,
      "so": 640,
      "đặc": 641,
      "tâm": 642,
      "áo": 643,
      "ồm": 644,
      "thiết": 645,
      ").": 646,
      "giao": 647,
      "gồm": 648,
      "tài": 649,
      "bình": 650,
      "][": 651,
      "vì": 652,
      "hoạt": 653,
      "điểm": 654,
      "mặt": 655,
      "quyết": 656,
      "ưu": 657,
      "tập": 658,
      "tố": 659,
      "gian": 660,
      "phân": 661,
      "ởi": 662,
      "phủ": 663,
      "vụ": 664,
      "ợi": 665,
      "ỗi": 666,
      "bao": 667,
      "cấp": 668,
      "biệt": 669,
      "vương": 670,
      "thuộc": 671,
      "tăng": 672,
      "ba": 673,
      "viên": 674,
      "óng": 675,
      "ằm": 676,
      "gọi": 677,
      "chu": 678,
      "chế": 679,
      "lã": 680,
      "lên": 681,
      "đường": 682,
      "tham": 683,
      "yếu": 684,
      "đi": 685,
      "chất": 686,
      "đây": 687,
      "ro": 688,
      "quả": 689,
      "đội": 690,
      "phố": 691,
      "phẩm": 692,
      "kỷ": 693,
      "huy": 694,
      "òa": 695,
      "khí": 696,
      "ỉnh": 697,
      "vùng": 698,
      "kiến": 699,
      "iếu": 700,
      "tên": 701,
      "gó": 702,
      "hoa": 703,
      "mạnh": 704,
      "đình": 705,
      "má": 706,
      "duy": 707,
      "la": 708,
      "kiện": 709,
      "thì": 710,
      "tình": 711,
      "phí": 712,
      "tương": 713,
      "tích": 714,
      "vẫn": 715,
      "thần": 716,
      "iếm": 717,
      "ốn": 718,
      "tiêu": 719,
      "tử": 720,
      "đều": 721,
      "nay": 722,
      "ồi": 723,
      "dịch": 724,
      "ạch": 725,
      "sắc": 726,
      "tiến": 727,
      "trò": 728,
      "lợi": 729,
      "đóng": 730,
      "cổ": 731,
      "ắng": 732,
      "is": 733,
      "phản": 734,
      "đa": 735,
      "liệu": 736,
      "hà": 737,
      "du": 738,
      "bu": 739,
      "tôn": 740,
      "hậu": 741,
      "thiên": 742,
      "dạng": 743,
      "đời": 744,
      "áp": 745,
      "quá": 746,
      "lĩnh": 747,
      "ngôn": 748,
      "bắt": 749,
      "hay": 750,
      "lãnh": 751,
      "tôi": 752,
      "út": 753,
      "góp": 754,
      "mỗi": 755,
      "or": 756,
      "ệnh": 757,
      "diễn": 758,
      "dư": 759,
      "ưng": 760,
      "thương": 761,
      "su": 762,
      "máy": 763,
      "trí": 764,
      "tộc": 765,
      "cảnh": 766,
      "201": 767,
      "cung": 768,
      "hòa": 769,
      "nhật": 770,
      "cải": 771,
      "ẩn": 772,
      "ban": 773,
      "đức": 774,
      "cảm": 775,
      "cử": 776,
      "hu": 777,
      "tỉnh": 778,
      "dựng": 779,
      "dùng": 780,
      "ngu": 781,
      "hi": 782,
      "chuyển": 783,
      "tượng": 784,
      "ép": 785,
      "xây": 786,
      "vệ": 787,
      "tổng": 788,
      "ti": 789,
      "nội": 790,
      "đang": 791,
      "đô": 792,
      "vai": 793,
      "khả": 794,
      "hiểu": 795,
      "ậy": 796,
      "bởi": 797,
      "độc": 798,
      "ầm": 799,
      "biểu": 800,
      "le": 801,
      "khoảng": 802,
      "phục": 803,
      "thuy": 804,
      "phía": 805,
      "biết": 806,
      "mở": 807,
      "ỏi": 808,
      "thanh": 809,
      "ến": 810,
      "mã": 811,
      "ìm": 812,
      "tinh": 813,
      "sức": 814,
      "nguồn": 815,
      "ma": 816,
      "18": 817,
      "..": 818,
      "dương": 819,
      "ùa": 820,
      "khoa": 821,
      "and": 822,
      "tìm": 823,
      "êu": 824,
      "trận": 825,
      "lưu": 826,
      "200": 827,
      "phú": 828,
      "cuối": 829,
      "10": 830,
      "ạm": 831,
      "êm": 832,
      "ẳng": 833,
      "ne": 834,
      "lần": 835,
      "điện": 836,
      "sáng": 837,
      "rõ": 838,
      "bên": 839,
      "rộng": 840,
      "thích": 841,
      "vấn": 842,
      "triệu": 843,
      "đấu": 844,
      "kế": 845,
      "li": 846,
      "vũ": 847,
      "ri": 848,
      "nhiệm": 849,
      "tới": 850,
      "lễ": 851,
      "iêm": 852,
      "nói": 853,
      "quản": 854,
      "mỹ": 855,
      "mó": 856,
      "sở": 857,
      "cá": 858,
      "diện": 859,
      "chia": 860,
      "nông": 861,
      "chữ": 862,
      "ạp": 863,
      "ắn": 864,
      "ọn": 865,
      "dài": 866,
      "kỹ": 867,
      "tục": 868,
      "bất": 869,
      "tiền": 870,
      "ọc": 871,
      "sĩ": 872,
      "trợ": 873,
      "sơn": 874,
      "phi": 875,
      "môi": 876,
      "dục": 877,
      "mu": 878,
      "nữ": 879,
      "12": 880,
      "mọi": 881,
      "giảm": 882,
      "as": 883,
      "nhằm": 884,
      "trì": 885,
      "phụ": 886,
      "món": 887,
      "hải": 888,
      "hán": 889,
      "thân": 890,
      "từng": 891,
      "thuyết": 892,
      "yêu": 893,
      "đảo": 894,
      "biển": 895,
      "iêng": 896,
      "ừa": 897,
      "tướng": 898,
      "âng": 899,
      "sông": 900,
      "danh": 901,
      "tho": 902,
      "hoàn": 903,
      "mùa": 904,
      "mục": 905,
      "loài": 906,
      "cư": 907,
      "trịnh": 908,
      "thiện": 909,
      "thư": 910,
      "tưởng": 911,
      "long": 912,
      "mạng": 913,
      "tồn": 914,
      "lan": 915,
      "dưới": 916,
      "gây": 917,
      "re": 918,
      "óm": 919,
      "đơn": 920,
      "17": 921,
      "ừng": 922,
      "đua": 923,
      "sâu": 924,
      "hồ": 925,
      "thắng": 926,
      "trang": 927,
      "thi": 928,
      "chương": 929,
      "te": 930,
      "đá": 931,
      "ngôi": 932,
      "chi": 933,
      "ốt": 934,
      "vậy": 935,
      "xem": 936,
      "chí": 937,
      "bỏ": 938,
      "bài": 939,
      "chiếm": 940,
      "ãi": 941,
      "lược": 942,
      "xác": 943,
      "ìn": 944,
      "miền": 945,
      "khách": 946,
      "gần": 947,
      "khó": 948,
      "mô": 949,
      "luật": 950,
      "đạt": 951,
      "câu": 952,
      "quý": 953,
      "dù": 954,
      "si": 955,
      "sang": 956,
      "đặt": 957,
      "riêng": 958,
      "đoạn": 959,
      "nhạc": 960,
      "nhập": 961,
      "ca": 962,
      "nhóm": 963,
      "ngoại": 964,
      "nhỏ": 965,
      "thêm": 966,
      "trúc": 967,
      "ngành": 968,
      "viện": 969,
      "ấm": 970,
      "hạn": 971,
      "nào": 972,
      "mi": 973,
      "ảy": 974,
      "ty": 975,
      "chúa": 976,
      "hỗ": 977,
      "ạy": 978,
      "kiểm": 979,
      "bóng": 980,
      "thúc": 981,
      "sai": 982,
      "hút": 983,
      "ảm": 984,
      "đưa": 985,
      "ghi": 986,
      "khiến": 987,
      "đồ": 988,
      "sát": 989,
      "kể": 990,
      "us": 991,
      "lệ": 992,
      "bạn": 993,
      "nâng": 994,
      "phổ": 995,
      "15": 996,
      "viết": 997,
      "uyên": 998,
      "nghiệm": 999,
      "giai": 1000,
      "ét": 1001,
      "\".": 1002,
      "hướng": 1003,
      "trưởng": 1004,
      "thuận": 1005,
      "huyện": 1006,
      "na": 1007,
      "thổ": 1008,
      "úng": 1009,
      "ẹp": 1010,
      "mối": 1011,
      "xe": 1012,
      "thánh": 1013,
      "chống": 1014,
      "mất": 1015,
      "16": 1016,
      "tiết": 1017,
      "éo": 1018,
      "chuẩn": 1019,
      "ỡng": 1020,
      "chung": 1021,
      "bo": 1022,
      "cạnh": 1023,
      "tốt": 1024,
      "tay": 1025,
      "khai": 1026,
      "ăm": 1027,
      "nằm": 1028,
      "xung": 1029,
      "đáng": 1030,
      "luận": 1031,
      "ặp": 1032,
      "phép": 1033,
      "000": 1034,
      "ký": 1035,
      "phòng": 1036,
      "chọn": 1037,
      "ượt": 1038,
      "14": 1039,
      "hạ": 1040,
      "báo": 1041,
      "tuổi": 1042,
      "cố": 1043,
      "lòng": 1044,
      "ữu": 1045,
      "de": 1046,
      "đảng": 1047,
      "bệnh": 1048,
      "ặng": 1049,
      "dấu": 1050,
      "hữu": 1051,
      "vững": 1052,
      "nếu": 1053,
      "vận": 1054,
      "da": 1055,
      "kim": 1056,
      "cực": 1057,
      "xuyên": 1058,
      "bố": 1059,
      "chứng": 1060,
      "niên": 1061,
      "cụ": 1062,
      "quảng": 1063,
      "cây": 1064,
      "mặc": 1065,
      "ter": 1066,
      "trải": 1067,
      "ệt": 1068,
      "lạc": 1069,
      "đảm": 1070,
      "tất": 1071,
      "ám": 1072,
      "nối": 1073,
      "giờ": 1074,
      "giành": 1075,
      "hộ": 1076,
      "thiếu": 1077,
      "bàn": 1078,
      "bật": 1079,
      "cái": 1080,
      "vô": 1081,
      "ninh": 1082,
      "thượng": 1083,
      "thủy": 1084,
      "hầu": 1085,
      "hết": 1086,
      "hương": 1087,
      "doanh": 1088,
      "tỷ": 1089,
      "mại": 1090,
      "toán": 1091,
      "binh": 1092,
      "ắp": 1093,
      "trẻ": 1094,
      "coi": 1095,
      "([": 1096,
      "niệm": 1097,
      "13": 1098,
      "lúc": 1099,
      "thất": 1100,
      "thụ": 1101,
      "hồi": 1102,
      "thao": 1103,
      "đoàn": 1104,
      "chị": 1105,
      "trái": 1106,
      "mẽ": 1107,
      "ít": 1108,
      "cường": 1109,
      "phúc": 1110,
      "lục": 1111,
      "bối": 1112,
      "nga": 1113,
      "tạp": 1114,
      "thập": 1115,
      "úi": 1116,
      "khăn": 1117,
      "199": 1118,
      "mạc": 1119,
      "nghị": 1120,
      "sa": 1121,
      "cấu": 1122,
      "lấy": 1123,
      "phạm": 1124,
      "ẩy": 1125,
      "bán": 1126,
      "quang": 1127,
      "biên": 1128,
      "lâu": 1129,
      "trực": 1130,
      "trạng": 1131,
      "nhanh": 1132,
      "ắm": 1133,
      "khỏ": 1134,
      "ổn": 1135,
      "khỏe": 1136,
      "lai": 1137,
      "bước": 1138,
      "dựa": 1139,
      "tấn": 1140,
      "man": 1141,
      "11": 1142,
      "nha": 1143,
      "suy": 1144,
      "nghi": 1145,
      "nhu": 1146,
      "bang": 1147,
      "mức": 1148,
      "tan": 1149,
      "sao": 1150,
      "chưa": 1151,
      "chết": 1152,
      "thách": 1153,
      "tức": 1154,
      "đẩy": 1155,
      "nhiệt": 1156,
      "bại": 1157,
      "hiệp": 1158,
      "nhờ": 1159,
      "chân": 1160,
      "dễ": 1161,
      "gặp": 1162,
      "hỏi": 1163,
      "hiến": 1164,
      "sứ": 1165,
      "bà": 1166,
      "po": 1167,
      "núi": 1168,
      "chơi": 1169,
      "càng": 1170,
      "yên": 1171,
      "ầy": 1172,
      "...": 1173,
      "bầu": 1174,
      "tuyên": 1175,
      "ín": 1176,
      "đột": 1177,
      "linh": 1178,
      "thừa": 1179,
      "phức": 1180,
      "bền": 1181,
      "giang": 1182,
      "lư": 1183,
      "ứa": 1184,
      "chịu": 1185,
      "pa": 1186,
      "hy": 1187,
      "hồng": 1188,
      "lao": 1189,
      "rồi": 1190,
      "ngô": 1191,
      "muốn": 1192,
      "trời": 1193,
      "àu": 1194,
      "đẹp": 1195,
      "đào": 1196,
      "khởi": 1197,
      "gốc": 1198,
      "ly": 1199,
      "nhìn": 1200,
      "tối": 1201,
      "phật": 1202,
      "ví": 1203,
      "ki": 1204,
      "khắc": 1205,
      "luôn": 1206,
      "đà": 1207,
      "môn": 1208,
      "dung": 1209,
      "trưng": 1210,
      "tuyến": 1211,
      "cập": 1212,
      "ủy": 1213,
      "dữ": 1214,
      "lương": 1215,
      "lệnh": 1216,
      "iềm": 1217,
      "ce": 1218,
      "tri": 1219,
      "bay": 1220,
      "ẩu": 1221,
      "ủng": 1222,
      "sân": 1223,
      "tân": 1224,
      "quận": 1225,
      "\",": 1226,
      "xử": 1227,
      "thơ": 1228,
      "tam": 1229,
      "tín": 1230,
      "soát": 1231,
      "ếp": 1232,
      "trách": 1233,
      "vượt": 1234,
      "phù": 1235,
      "kiếm": 1236,
      "go": 1237,
      "se": 1238,
      "ẫu": 1239,
      "chuyên": 1240,
      "quanh": 1241,
      "ru": 1242,
      "đài": 1243,
      "hưng": 1244,
      "chạy": 1245,
      "bào": 1246,
      "khỏi": 1247,
      "ậm": 1248,
      "cận": 1249,
      "giác": 1250,
      "mo": 1251,
      "phim": 1252,
      "hấp": 1253,
      "cha": 1254,
      "đứng": 1255,
      "thật": 1256,
      "ịp": 1257,
      "lời": 1258,
      "nhớ": 1259,
      "ha": 1260,
      "nghiêm": 1261,
      "ửa": 1262,
      "nhi": 1263,
      "khẩu": 1264,
      "gen": 1265,
      "ầng": 1266,
      "tầng": 1267,
      "va": 1268,
      "me": 1269,
      "gu": 1270,
      "cửa": 1271,
      "ber": 1272,
      "pi": 1273,
      "tô": 1274,
      "dòng": 1275,
      "xi": 1276,
      "lớp": 1277,
      "kéo": 1278,
      "buổi": 1279,
      "giống": 1280,
      "đinh": 1281,
      "suất": 1282,
      "chấp": 1283,
      "khuy": 1284,
      "địch": 1285,
      "liệt": 1286,
      "bánh": 1287,
      "tra": 1288,
      "kháng": 1289,
      "kính": 1290,
      "xa": 1291,
      "194": 1292,
      "gh": 1293,
      "cô": 1294,
      "trào": 1295,
      "30": 1296,
      "ãn": 1297,
      "197": 1298,
      "ựa": 1299,
      "quần": 1300,
      "tầm": 1301,
      "tống": 1302,
      "hạt": 1303,
      "tả": 1304,
      "hoạch": 1305,
      "gì": 1306,
      "đủ": 1307,
      "vọng": 1308,
      "vu": 1309,
      "bổ": 1310,
      "mar": 1311,
      "vòng": 1312,
      "nữa": 1313,
      "lâm": 1314,
      "áu": 1315,
      "can": 1316,
      "cai": 1317,
      "đúng": 1318,
      "óc": 1319,
      "xâm": 1320,
      "chuyện": 1321,
      "đem": 1322,
      "nỗ": 1323,
      "xảy": 1324,
      "trai": 1325,
      "50": 1326,
      "màu": 1327,
      "bè": 1328,
      "ni": 1329,
      "trụ": 1330,
      "trấn": 1331,
      "mẹ": 1332,
      "198": 1333,
      "the": 1334,
      "giết": 1335,
      "thảo": 1336,
      "đôi": 1337,
      "thiểu": 1338,
      "ỏa": 1339,
      "chóng": 1340,
      "we": 1341,
      "xếp": 1342,
      "xuống": 1343,
      "ii": 1344,
      "of": 1345,
      "new": 1346,
      "sư": 1347,
      "xét": 1348,
      "suốt": 1349,
      "thấp": 1350,
      "song": 1351,
      "chăm": 1352,
      "tiểu": 1353,
      "biện": 1354,
      "car": 1355,
      "pe": 1356,
      "trương": 1357,
      "đầy": 1358,
      "thờ": 1359,
      "tịch": 1360,
      "tù": 1361,
      "thú": 1362,
      "điển": 1363,
      "nghe": 1364,
      "thẳng": 1365,
      "thưởng": 1366,
      "khám": 1367,
      "ôm": 1368,
      "đích": 1369,
      "mông": 1370,
      "luy": 1371,
      "yo": 1372,
      "ci": 1373,
      "triết": 1374,
      "cam": 1375,
      "ton": 1376,
      "mưa": 1377,
      "thuần": 1378,
      "tàu": 1379,
      "kê": 1380,
      "202": 1381,
      "chứa": 1382,
      "be": 1383,
      "bi": 1384,
      "gắn": 1385,
      "tion": 1386,
      "ữa": 1387,
      "ngân": 1388,
      "đổ": 1389,
      "ngay": 1390,
      "vàng": 1391,
      "bức": 1392,
      "mẫu": 1393,
      "phái": 1394,
      "luyện": 1395,
      "cáo": 1396,
      "par": 1397,
      "nu": 1398,
      "fi": 1399,
      "km": 1400,
      "chỉnh": 1401,
      "phó": 1402,
      "ck": 1403,
      "đáo": 1404,
      "quán": 1405,
      "hạng": 1406,
      "kích": 1407,
      "196": 1408,
      "dần": 1409,
      "phối": 1410,
      "xúc": 1411,
      "pu": 1412,
      "đọc": 1413,
      "giám": 1414,
      "hại": 1415,
      "nhiễ": 1416,
      "khánh": 1417,
      "hùng": 1418,
      "ga": 1419,
      "tốc": 1420,
      "tiện": 1421,
      "tái": 1422,
      "mật": 1423,
      "òi": 1424,
      "làng": 1425,
      "bảng": 1426,
      "tắc": 1427,
      "phiên": 1428,
      "chẳng": 1429,
      "xương": 1430,
      "ặn": 1431,
      "no": 1432,
      "tảng": 1433,
      "ũng": 1434,
      "trồng": 1435,
      "thuế": 1436,
      "dưỡng": 1437,
      "miếu": 1438,
      "ềm": 1439,
      "giản": 1440,
      "ão": 1441,
      "quyển": 1442,
      "loạn": 1443,
      "dàng": 1444,
      "vốn": 1445,
      "hàn": 1446,
      "trao": 1447,
      "iếc": 1448,
      "cân": 1449,
      "xuân": 1450,
      "fa": 1451,
      "trùng": 1452,
      "cn": 1453,
      "đốc": 1454,
      "lộ": 1455,
      "thụy": 1456,
      "buộc": 1457,
      "khảo": 1458,
      "for": 1459,
      "lựa": 1460,
      "khuyến": 1461,
      "cát": 1462,
      "khái": 1463,
      "il": 1464,
      "sớ": 1465,
      "mềm": 1466,
      "rừng": 1467,
      "nhiễm": 1468,
      "khắp": 1469,
      "vài": 1470,
      "chiếc": 1471,
      "tứ": 1472,
      "ka": 1473,
      "bạch": 1474,
      "ir": 1475,
      "ngọc": 1476,
      "ine": 1477,
      "õi": 1478,
      "ươi": 1479,
      "nho": 1480,
      "thăng": 1481,
      "chiều": 1482,
      "khổ": 1483,
      "trả": 1484,
      "net": 1485,
      "thử": 1486,
      "kiểu": 1487,
      "đăng": 1488,
      "khích": 1489,
      "hàm": 1490,
      "ver": 1491,
      "chiêu": 1492,
      "25": 1493,
      "tội": 1494,
      "nặng": 1495,
      "tòa": 1496,
      "xô": 1497,
      "ngũ": 1498,
      "bữa": 1499,
      "ém": 1500,
      "tuyệt": 1501,
      "sớm": 1502,
      "thịnh": 1503,
      "web": 1504,
      "vui": 1505,
      "vạn": 1506,
      "truyện": 1507,
      "rút": 1508,
      "ur": 1509,
      "bá": 1510,
      "ỏng": 1511,
      "trữ": 1512,
      "căng": 1513,
      "chiếu": 1514,
      "ali": 1515,
      "chép": 1516,
      "đương": 1517,
      "dành": 1518,
      "kiên": 1519,
      "niềm": 1520,
      "sh": 1521,
      "sẻ": 1522,
      "st": 1523,
      "huệ": 1524,
      "bờ": 1525,
      "nắm": 1526,
      "đền": 1527,
      "bốn": 1528,
      "ja": 1529,
      "èo": 1530,
      "ãy": 1531,
      "dinh": 1532,
      "ràng": 1533,
      "pro": 1534,
      "liền": 1535,
      "đàn": 1536,
      "vĩnh": 1537,
      "tần": 1538,
      "ge": 1539,
      "ve": 1540,
      "võ": 1541,
      "phê": 1542,
      "dậy": 1543,
      "xưng": 1544,
      "dịp": 1545,
      "loan": 1546,
      "195": 1547,
      "bồ": 1548,
      "tuyển": 1549,
      "mua": 1550,
      "xin": 1551,
      "khối": 1552,
      "at": 1553,
      "ngăn": 1554,
      "jo": 1555,
      "phóng": 1556,
      "tùy": 1557,
      "phận": 1558,
      "by": 1559,
      "đoán": 1560,
      "])": 1561,
      "thịt": 1562,
      "sơ": 1563,
      "sắt": 1564,
      "tải": 1565,
      "trừ": 1566,
      "đáp": 1567,
      "mộ": 1568,
      "lưỡng": 1569,
      "thác": 1570,
      "lin": 1571,
      "mạch": 1572,
      "pp": 1573,
      "lẫn": 1574,
      "họa": 1575,
      "thoại": 1576,
      "cánh": 1577,
      "mắt": 1578,
      "24": 1579,
      "vừa": 1580,
      "100": 1581,
      "gái": 1582,
      "nghề": 1583,
      "tcn": 1584,
      "land": 1585,
      "tránh": 1586,
      "thuyền": 1587,
      "cờ": 1588,
      "tuần": 1589,
      "căn": 1590,
      "hoá": 1591,
      "họp": 1592,
      "ngon": 1593,
      "bãi": 1594,
      "hát": 1595,
      "dạy": 1596,
      "ngược": 1597,
      "diệt": 1598,
      "đòi": 1599,
      "băng": 1600,
      "mong": 1601,
      "nuôi": 1602,
      "hoảng": 1603,
      "lăng": 1604,
      "vo": 1605,
      "bậ": 1606,
      "bậc": 1607,
      "ran": 1608,
      "uống": 1609,
      "iệc": 1610,
      "lửa": 1611,
      "bạc": 1612,
      "mer": 1613,
      "vợ": 1614,
      "60": 1615,
      "tiệc": 1616,
      "chuyến": 1617,
      "hiểm": 1618,
      "cuốn": 1619,
      "22": 1620,
      "thiệu": 1621,
      "phạt": 1622,
      "ven": 1623,
      "40": 1624,
      "]),": 1625,
      "don": 1626,
      "chắc": 1627,
      "tước": 1628,
      "eu": 1629,
      "củng": 1630,
      "nạn": 1631,
      "đu": 1632,
      "vid": 1633,
      "úa": 1634,
      "miễn": 1635,
      "tệ": 1636,
      "huý": 1637,
      "tận": 1638,
      "cấm": 1639,
      "ọt": 1640,
      "bar": 1641,
      "bí": 1642,
      "giáp": 1643,
      "vĩ": 1644,
      "cầm": 1645,
      "cãi": 1646,
      "khóa": 1647,
      "mãn": 1648,
      "23": 1649,
      "chặt": 1650,
      "ron": 1651,
      "paris": 1652,
      "chiêm": 1653,
      "vẻ": 1654,
      "thai": 1655,
      "eland": 1656,
      "bấy": 1657,
      "son": 1658,
      "27": 1659,
      "ko": 1660,
      "tụ": 1661,
      "thôn": 1662,
      "bề": 1663,
      "inter": 1664,
      "siêu": 1665,
      "sóng": 1666,
      "lạp": 1667,
      "sk": 1668,
      "ộn": 1669,
      "wor": 1670,
      "chinh": 1671,
      "uni": 1672,
      "mai": 1673,
      "máu": 1674,
      "phán": 1675,
      "ec": 1676,
      "tim": 1677,
      "khủng": 1678,
      "cảng": 1679,
      "tươi": 1680,
      "kẻ": 1681,
      "rid": 1682,
      "chùa": 1683,
      "tai": 1684,
      "tĩnh": 1685,
      "ứt": 1686,
      "cự": 1687,
      "ói": 1688,
      "sửa": 1689,
      "cục": 1690,
      "tàn": 1691,
      "21": 1692,
      "thoát": 1693,
      "nhắc": 1694,
      "lụ": 1695,
      "khán": 1696,
      "thọ": 1697,
      "dầu": 1698,
      "vinh": 1699,
      "xanh": 1700,
      "2010": 1701,
      "ry": 1702,
      "ireland": 1703,
      "28": 1704,
      "quay": 1705,
      "rãi": 1706,
      "xứ": 1707,
      "giảng": 1708,
      "et": 1709,
      "lam": 1710,
      "ham": 1711,
      "mệnh": 1712,
      "gió": 1713,
      "khá": 1714,
      "cháu": 1715,
      "thạch": 1716,
      "ld": 1717,
      "lạnh": 1718,
      "hôn": 1719,
      "ngắn": 1720,
      "huế": 1721,
      "26": 1722,
      "tách": 1723,
      "bon": 1724,
      "khẳng": 1725,
      "lang": 1726,
      "men": 1727,
      "res": 1728,
      "èm": 1729,
      "gỗ": 1730,
      "huống": 1731,
      "khoản": 1732,
      "ụp": 1733,
      "bia": 1734,
      "bèn": 1735,
      "bra": 1736,
      "por": 1737,
      "sy": 1738,
      "ll": 1739,
      "bày": 1740,
      "mon": 1741,
      "chặn": 1742,
      "bác": 1743,
      "lượt": 1744,
      "xưa": 1745,
      "hứng": 1746,
      "đỏ": 1747,
      "thù": 1748,
      "thuốc": 1749,
      "29": 1750,
      "lính": 1751,
      "ùi": 1752,
      "rai": 1753,
      "pha": 1754,
      "gìn": 1755,
      "quen": 1756,
      "đỗ": 1757,
      "dõi": 1758,
      "lá": 1759,
      "ẵn": 1760,
      "hào": 1761,
      "tỉ": 1762,
      "trăng": 1763,
      "wi": 1764,
      "tùng": 1765,
      "khiển": 1766,
      "canh": 1767,
      "san": 1768,
      "mad": 1769,
      "quê": 1770,
      "chấm": 1771,
      "per": 1772,
      "mal": 1773,
      "cương": 1774,
      "sóc": 1775,
      "ts": 1776,
      "chủng": 1777,
      "80": 1778,
      "mưu": 1779,
      "úy": 1780,
      "tuệ": 1781,
      "hiếu": 1782,
      "ard": 1783,
      "sẵn": 1784,
      "ửi": 1785,
      "iếp": 1786,
      "tán": 1787,
      "ngủ": 1788,
      "cro": 1789,
      "ọa": 1790,
      "rau": 1791,
      "cal": 1792,
      "não": 1793,
      "ngư": 1794,
      "phan": 1795,
      "sung": 1796,
      "dp": 1797,
      "70": 1798,
      "nửa": 1799,
      "đẳng": 1800,
      "nhẹ": 1801,
      "soạn": 1802,
      "may": 1803,
      "ox": 1804,
      "loạt": 1805,
      "he": 1806,
      "chỗ": 1807,
      "thua": 1808,
      "ngừng": 1809,
      "nghỉ": 1810,
      "lối": 1811,
      "rus": 1812,
      "ựng": 1813,
      "rượ": 1814,
      "gửi": 1815,
      "lẽ": 1816,
      "tường": 1817,
      "rượu": 1818,
      "del": 1819,
      "nóng": 1820,
      "kèm": 1821,
      "ướp": 1822,
      "cống": 1823,
      "gr": 1824,
      "sco": 1825,
      "khúc": 1826,
      "rời": 1827,
      "đuổi": 1828,
      "bạo": 1829,
      "tỏ": 1830,
      "èn": 1831,
      "cel": 1832,
      "khôi": 1833,
      "ft": 1834,
      "ớt": 1835,
      "hỏa": 1836,
      "đai": 1837,
      "cắt": 1838,
      "trắng": 1839,
      "90": 1840,
      "ana": 1841,
      "nhấn": 1842,
      "kịch": 1843,
      "vân": 1844,
      "ed": 1845,
      "uk": 1846,
      "nhị": 1847,
      "chẽ": 1848,
      "lành": 1849,
      "khổng": 1850,
      "2011": 1851,
      "thoa": 1852,
      "huấn": 1853,
      "lưới": 1854,
      "thiệt": 1855,
      "thiệp": 1856,
      "đỉnh": 1857,
      "chảy": 1858,
      "phường": 1859,
      "đới": 1860,
      "đen": 1861,
      "khô": 1862,
      "giấy": 1863,
      "ngờ": 1864,
      "ngại": 1865,
      "viễn": 1866,
      "gắng": 1867,
      "dũng": 1868,
      "cl": 1869,
      "trăm": 1870,
      "gue": 1871,
      "os": 1872,
      "com": 1873,
      "kênh": 1874,
      "kém": 1875,
      "lũ": 1876,
      "hài": 1877,
      "ke": 1878,
      "che": 1879,
      "sợ": 1880,
      "2006": 1881,
      "dâng": 1882,
      "193": 1883,
      "đêm": 1884,
      "cà": 1885,
      "gạo": 1886,
      "lea": 1887,
      "hiếm": 1888,
      "tor": 1889,
      "ngoặt": 1890,
      "cướp": 1891,
      "og": 1892,
      "2013": 1893,
      "ũi": 1894,
      "fran": 1895,
      "ót": 1896,
      "trích": 1897,
      "càn": 1898,
      "hè": 1899,
      "2016": 1900,
      "ze": 1901,
      "thước": 1902,
      "giàu": 1903,
      "2008": 1904,
      "sáu": 1905,
      "đàm": 1906,
      "internet": 1907,
      "buôn": 1908,
      "bel": 1909,
      "nghìn": 1910,
      "nghèo": 1911,
      "thẩm": 1912,
      "tiễn": 1913,
      "ẵng": 1914,
      "tàng": 1915,
      "mát": 1916,
      "nấu": 1917,
      "sta": 1918,
      "2007": 1919,
      "hủy": 1920,
      "lắng": 1921,
      "đệ": 1922,
      "tết": 1923,
      "nẵng": 1924,
      "ruộng": 1925,
      "cú": 1926,
      "ngụ": 1927,
      "nổ": 1928,
      "rập": 1929,
      "chợ": 1930,
      "tuân": 1931,
      "lúa": 1932,
      "ger": 1933,
      "scot": 1934,
      "dẹp": 1935,
      "lon": 1936,
      "tiềm": 1937,
      "phu": 1938,
      "usd": 1939,
      "lầm": 1940,
      "sắp": 1941,
      "ngự": 1942,
      "lỗi": 1943,
      "les": 1944,
      "mỏ": 1945,
      "hơi": 1946,
      "ander": 1947,
      "kì": 1948,
      "hã": 1949,
      "mach": 1950,
      "ronal": 1951,
      ".\"": 1952,
      "vong": 1953,
      "sụp": 1954,
      "sen": 1955,
      "áy": 1956,
      "1945": 1957,
      "kông": 1958,
      "nhánh": 1959,
      "real": 1960,
      "ser": 1961,
      "trú": 1962,
      "esia": 1963,
      "madrid": 1964,
      "world": 1965,
      "cup": 1966,
      "lui": 1967,
      "wa": 1968,
      "tein": 1969,
      "xo": 1970,
      "lộc": 1971,
      "vây": 1972,
      "euro": 1973,
      "istan": 1974,
      "ano": 1975,
      "league": 1976,
      "rơi": 1977,
      "tổn": 1978,
      "bách": 1979,
      "dãy": 1980,
      "thí": 1981,
      "khứ": 1982,
      "thỏa": 1983,
      "2012": 1984,
      "hôm": 1985,
      "yor": 1986,
      "thậm": 1987,
      "ogle": 1988,
      "tờ": 1989,
      "thục": 1990,
      "ona": 1991,
      "xico": 1992,
      "dừng": 1993,
      "đốt": 1994,
      "2014": 1995,
      "op": 1996,
      "thăm": 1997,
      "logi": 1998,
      "google": 1999,
      "cậu": 2000,
      "hiển": 2001,
      "kiệm": 2002,
      "2000": 2003,
      "2015": 2004,
      "dây": 2005,
      "điền": 2006,
      "chứ": 2007,
      "2009": 2008,
      "tật": 2009,
      "cứng": 2010,
      "ronaldo": 2011,
      "2017": 2012,
      "ngưỡng": 2013,
      "vượng": 2014,
      "chậm": 2015,
      "cửu": 2016,
      "mes": 2017,
      "quỹ": 2018,
      "188": 2019,
      "win": 2020,
      "kar": 2021,
      "chim": 2022,
      "york": 2023,
      "tạm": 2024,
      "cham": 2025,
      "giãn": 2026,
      "gam": 2027,
      "sáp": 2028,
      "hãn": 2029,
      "2019": 2030,
      "ku": 2031,
      "2018": 2032,
      "oxy": 2033,
      "35": 2034,
      "za": 2035,
      "video": 2036,
      "kia": 2037,
      "thải": 2038,
      "duyệt": 2039,
      "gdp": 2040,
      "des": 2041,
      "mậu": 2042,
      "phiếu": 2043,
      "luân": 2044,
      "trống": 2045,
      "nét": 2046,
      "rối": 2047,
      "xạ": 2048,
      "thuẫn": 2049,
      "cúng": 2050,
      "dị": 2051,
      "tắt": 2052,
      "tru": 2053,
      "khiêm": 2054,
      "bé": 2055,
      "mười": 2056,
      "nhĩ": 2057,
      "scotland": 2058,
      "trà": 2059,
      "ườn": 2060,
      "đe": 2061,
      "màn": 2062,
      "chặng": 2063,
      "hạnh": 2064,
      "mái": 2065,
      "chồng": 2066,
      "2020": 2067,
      "dứt": 2068,
      "hoang": 2069,
      "dã": 2070,
      "đỡ": 2071,
      "đàng": 2072,
      "chạm": 2073,
      "nguyện": 2074,
      "31": 2075,
      "mê": 2076,
      "thôi": 2077,
      "hoà": 2078,
      "khía": 2079,
      "den": 2080,
      "gas": 2081,
      "đậu": 2082,
      "đựng": 2083,
      "bắn": 2084,
      "phe": 2085,
      "đau": 2086,
      "dal": 2087,
      "tám": 2088,
      "dọc": 2089,
      "nô": 2090,
      "ada": 2091,
      "tt": 2092,
      "khoáng": 2093,
      "bát": 2094,
      "190": 2095,
      "2005": 2096,
      "]).": 2097,
      "thói": 2098,
      "bỉ": 2099,
      "45": 2100,
      "cốt": 2101,
      "lạm": 2102,
      "bội": 2103,
      "min": 2104,
      "chấn": 2105,
      "tron": 2106,
      "micro": 2107,
      "khải": 2108,
      "ok": 2109,
      "ủi": 2110,
      "dọa": 2111,
      "ẹn": 2112,
      "tháp": 2113,
      "campu": 2114,
      "campuchia": 2115,
      "đón": 2116,
      "virus": 2117,
      "ngang": 2118,
      "bò": 2119,
      "túc": 2120,
      "vỏ": 2121,
      "van": 2122,
      "góc": 2123,
      "bảy": 2124,
      "hồn": 2125,
      "mâu": 2126,
      "tes": 2127,
      "trốn": 2128,
      "bột": 2129,
      "mực": 2130,
      "ol": 2131,
      "tròn": 2132,
      "500": 2133,
      "đúc": 2134,
      "bal": 2135,
      "lân": 2136,
      "đậm": 2137,
      "duệ": 2138,
      "mộc": 2139,
      "súng": 2140,
      "cựu": 2141,
      "hn": 2142,
      "barcel": 2143,
      "barcelona": 2144,
      "pan": 2145,
      "ngàn": 2146,
      "ngầm": 2147,
      "phút": 2148,
      "khâm": 2149,
      "ad": 2150,
      "ukrai": 2151,
      "ngụy": 2152,
      "ốm": 2153,
      "tic": 2154,
      "nề": 2155,
      "pt": 2156,
      "sánh": 2157,
      "fer": 2158,
      "xiêm": 2159,
      "ụt": 2160,
      "hâm": 2161,
      "id": 2162,
      "kịp": 2163,
      "đói": 2164,
      "178": 2165,
      ",...": 2166,
      "1990": 2167,
      "gỡ": 2168,
      "tha": 2169,
      "đồn": 2170,
      "lis": 2171,
      "than": 2172,
      "khéo": 2173,
      "tina": 2174,
      "33": 2175,
      "75": 2176,
      "soft": 2177,
      "huyền": 2178,
      "phế": 2179,
      "vịnh": 2180,
      "bom": 2181,
      "tre": 2182,
      "65": 2183,
      "dày": 2184,
      "kiều": 2185,
      "bó": 2186,
      "ic": 2187,
      "carbon": 2188,
      "180": 2189,
      "tráng": 2190,
      "hòn": 2191,
      "argen": 2192,
      "):": 2193,
      "iệng": 2194,
      "huyết": 2195,
      "hung": 2196,
      "pal": 2197,
      "indon": 2198,
      "hãng": 2199,
      "%.": 2200,
      "bot": 2201,
      "ris": 2202,
      "điệp": 2203,
      "ấc": 2204,
      "],": 2205,
      "it": 2206,
      "trục": 2207,
      "thal": 2208,
      "ex": 2209,
      "indonesia": 2210,
      "miệng": 2211,
      "chối": 2212,
      "elec": 2213,
      "lẻ": 2214,
      "xá": 2215,
      "điệu": 2216,
      "trại": 2217,
      "trật": 2218,
      "khuẩn": 2219,
      "lọc": 2220,
      "mơ": 2221,
      "nộ": 2222,
      "ria": 2223,
      "sky": 2224,
      "95": 2225,
      "ngọt": 2226,
      "98": 2227,
      "gấp": 2228,
      "hãy": 2229,
      "cản": 2230,
      "vườn": 2231,
      "khung": 2232,
      "lão": 2233,
      "canada": 2234,
      "you": 2235,
      "argentina": 2236,
      "38": 2237,
      "wal": 2238,
      "48": 2239,
      "kiệt": 2240,
      "tặng": 2241,
      "gar": 2242,
      "đợi": 2243,
      "khang": 2244,
      "mãi": 2245,
      "giọng": 2246,
      "ted": 2247,
      "rủi": 2248,
      "đan": 2249,
      "ons": 2250,
      "ina": 2251,
      "bọn": 2252,
      "lái": 2253,
      "uẩn": 2254,
      "1970": 2255,
      "protein": 2256,
      "har": 2257,
      "der": 2258,
      "khoảnh": 2259,
      "tựu": 2260,
      "aland": 2261,
      "nhuận": 2262,
      "hổ": 2263,
      "léo": 2264,
      "thảm": 2265,
      "37": 2266,
      "bớt": 2267,
      "muối": 2268,
      "miêu": 2269,
      "sót": 2270,
      "john": 2271,
      "microsoft": 2272,
      "cột": 2273,
      "kêu": 2274,
      "sôi": 2275,
      "hối": 2276,
      "cháy": 2277,
      "giặc": 2278,
      "ju": 2279,
      "đặng": 2280,
      "gũi": 2281,
      "trứng": 2282,
      "neander": 2283,
      "voi": 2284,
      "dao": 2285,
      "tok": 2286,
      "mas": 2287,
      "77": 2288,
      "bỉnh": 2289,
      "mì": 2290,
      "thận": 2291,
      "ent": 2292,
      "cặp": 2293,
      "đâu": 2294,
      "tro": 2295,
      "1980": 2296,
      "logic": 2297,
      "az": 2298,
      "khẩn": 2299,
      "đôn": 2300,
      "lỗ": 2301,
      "neanderthal": 2302,
      "ue": 2303,
      "nadal": 2304,
      "bão": 2305,
      "gà": 2306,
      "tấm": 2307,
      "ẫm": 2308,
      "las": 2309,
      "2004": 2310,
      "ukraina": 2311,
      "ya": 2312,
      "44": 2313,
      "tv": 2314,
      "nhôm": 2315,
      "hang": 2316,
      "chờ": 2317,
      "zealand": 2318,
      "non": 2319,
      "giấc": 2320,
      "32": 2321,
      "côn": 2322,
      "wil": 2323,
      "hỗn": 2324,
      "36": 2325,
      "ws": 2326,
      "shi": 2327,
      "tube": 2328,
      "chín": 2329,
      "cúp": 2330,
      "latinh": 2331,
      "dời": 2332,
      "len": 2333,
      "chuộng": 2334,
      "mexico": 2335,
      "34": 2336,
      "quát": 2337,
      "kitô": 2338,
      "khuyết": 2339,
      "chiết": 2340,
      "trầm": 2341,
      "pore": 2342,
      "dạ": 2343,
      "um": 2344,
      "lào": 2345,
      "king": 2346,
      "ngồi": 2347,
      "hoài": 2348,
      "singa": 2349,
      "youtube": 2350,
      "singapore": 2351,
      "lũy": 2352,
      "ranh": 2353,
      "khmer": 2354,
      "my": 2355,
      "mẻ": 2356,
      "vời": 2357,
      "97": 2358,
      "nỗi": 2359,
      "pr": 2360,
      "thoái": 2361,
      "cán": 2362,
      "schu": 2363,
      "ĩa": 2364,
      "bur": 2365,
      "que": 2366,
      "messi": 2367,
      "99": 2368,
      "fli": 2369,
      "rael": 2370,
      "aul": 2371,
      "chuỗi": 2372,
      "sàng": 2373,
      "ines": 2374,
      "toyo": 2375,
      "1960": 2376,
      "dan": 2377,
      "vỡ": 2378,
      "đám": 2379,
      "cỏ": 2380,
      "láng": 2381,
      "mao": 2382,
      "phấn": 2383,
      "robot": 2384,
      "haw": 2385,
      "electron": 2386,
      "điêu": 2387,
      "cơm": 2388,
      "israel": 2389,
      "én": 2390,
      "ngựa": 2391,
      "thơm": 2392,
      "cốc": 2393,
      "mấy": 2394,
      "68": 2395,
      "phili": 2396,
      "lợ": 2397,
      "ler": 2398,
      "lệch": 2399,
      "ềng": 2400,
      "giềng": 2401,
      "ênh": 2402,
      "màng": 2403,
      "sil": 2404,
      "mời": 2405,
      "ot": 2406,
      "lường": 2407,
      "xấu": 2408,
      "champi": 2409,
      "cy": 2410,
      "gốm": 2411,
      "lật": 2412,
      "mắc": 2413,
      "tạng": 2414,
      "cơn": 2415,
      "đĩa": 2416,
      "bùng": 2417,
      "chắn": 2418,
      "42": 2419,
      "trinh": 2420,
      "champions": 2421,
      "47": 2422,
      "lỏng": 2423,
      "nhơn": 2424,
      "char": 2425,
      "trừng": 2426,
      "đoạt": 2427,
      "macher": 2428,
      "pres": 2429,
      "pháo": 2430,
      "lãng": 2431,
      "vang": 2432,
      "trãi": 2433,
      "flix": 2434,
      "nhượng": 2435,
      "schumacher": 2436,
      "pas": 2437,
      "ren": 2438,
      "sạch": 2439,
      "vải": 2440,
      "đồi": 2441,
      "giam": 2442,
      "tá": 2443,
      "tỏa": 2444,
      "2021": 2445,
      "58": 2446,
      "geo": 2447,
      "val": 2448,
      "nhũng": 2449,
      "ượn": 2450,
      "chữa": 2451,
      "phỏng": 2452,
      "dio": 2453,
      "netflix": 2454,
      "xích": 2455,
      "ngập": 2456,
      "già": 2457,
      "nghiệt": 2458,
      "thoải": 2459,
      "ford": 2460,
      "ỳnh": 2461,
      "dna": 2462,
      "liêu": 2463,
      ");": 2464,
      "sài": 2465,
      "sùng": 2466,
      "fifa": 2467,
      "ean": 2468,
      "nộp": 2469,
      "ira": 2470,
      "săn": 2471,
      "ac": 2472,
      "ing": 2473,
      "chư": 2474,
      "chốt": 2475,
      "ens": 2476,
      "hô": 2477,
      "nợ": 2478,
      "py": 2479,
      "giày": 2480,
      "gián": 2481,
      "hảo": 2482,
      "ram": 2483,
      "dia": 2484,
      "đoan": 2485,
      "uefa": 2486,
      "diên": 2487,
      "xvi": 2488,
      "nhịp": 2489,
      "tuấn": 2490,
      "toyota": 2491,
      "gy": 2492,
      "ặm": 2493,
      "windo": 2494,
      "phụng": 2495,
      "syria": 2496,
      "300": 2497,
      "lạng": 2498,
      "cậy": 2499,
      "mét": 2500,
      "tang": 2501,
      "thầy": 2502,
      "67": 2503,
      "offi": 2504,
      "bính": 2505,
      "top": 2506,
      "ester": 2507,
      "nôm": 2508,
      "nhường": 2509,
      "tine": 2510,
      "lợn": 2511,
      "tào": 2512,
      "quế": 2513,
      "ruột": 2514,
      "2003": 2515,
      "hộp": 2516,
      "92": 2517,
      "ary": 2518,
      "ima": 2519,
      "tokyo": 2520,
      "windows": 2521,
      "af": 2522,
      "bùi": 2523,
      "fo": 2524,
      "tamin": 2525,
      "tal": 2526,
      "hiền": 2527,
      "2024": 2528,
      "ném": 2529,
      "xóa": 2530,
      "bert": 2531,
      "ans": 2532,
      "khuôn": 2533,
      "vitamin": 2534,
      "rã": 2535,
      "ux": 2536,
      "trông": 2537,
      "way": 2538,
      "quên": 2539,
      "baby": 2540,
      "mắm": 2541,
      "lụt": 2542,
      "46": 2543,
      "hụt": 2544,
      "giỏi": 2545,
      "kạn": 2546,
      "ring": 2547,
      "2022": 2548,
      "cor": 2549,
      "office": 2550,
      "cẩn": 2551,
      "hư": 2552,
      "táng": 2553,
      "khoan": 2554,
      "trân": 2555,
      "móc": 2556,
      "1997": 2557,
      "vuông": 2558,
      "bụ": 2559,
      "gan": 2560,
      "nắng": 2561,
      "vẽ": 2562,
      "khốc": 2563,
      "ướt": 2564,
      "babylon": 2565,
      "khát": 2566,
      "aya": 2567,
      "tị": 2568,
      "ễu": 2569,
      "one": 2570,
      "93": 2571,
      "her": 2572,
      "trạm": 2573,
      "tel": 2574,
      "tter": 2575,
      "java": 2576,
      "41": 2577,
      "var": 2578,
      "xong": 2579,
      "ìa": 2580,
      "55": 2581,
      "cen": 2582,
      "2001": 2583,
      "1975": 2584,
      "lặp": 2585,
      "150": 2586,
      "nhạy": 2587,
      "kiêm": 2588,
      "đẻ": 2589,
      "chánh": 2590,
      "dâm": 2591,
      "pin": 2592,
      "sâm": 2593,
      "hoằng": 2594,
      "dar": 2595,
      "lạ": 2596,
      "giáng": 2597,
      "1950": 2598,
      "ilton": 2599,
      "hamilton": 2600,
      "71": 2601,
      "dặm": 2602,
      "nhảy": 2603,
      "gói": 2604,
      "grand": 2605,
      "43": 2606,
      "jan": 2607,
      "thiền": 2608,
      "trộn": 2609,
      "78": 2610,
      "gắt": 2611,
      "sia": 2612,
      "linux": 2613,
      "cas": 2614,
      "dra": 2615,
      "gre": 2616,
      "chăn": 2617,
      "thuê": 2618,
      "thuỵ": 2619,
      "fe": 2620,
      "lông": 2621,
      "bai": 2622,
      "hứa": 2623,
      "rồng": 2624,
      "sam": 2625,
      "est": 2626,
      "chuột": 2627,
      "%,": 2628,
      "ben": 2629,
      "ner": 2630,
      "nhẫn": 2631,
      "philipp": 2632,
      "diệu": 2633,
      "lữ": 2634,
      "brasil": 2635,
      "ib": 2636,
      "lõi": 2637,
      "nas": 2638,
      "vết": 2639,
      "lou": 2640,
      "geor": 2641,
      "cri": 2642,
      "tơ": 2643,
      "phùng": 2644,
      "răng": 2645,
      "làn": 2646,
      "cia": 2647,
      "mân": 2648,
      "nướng": 2649,
      "ut": 2650,
      "vy": 2651,
      "bc": 2652,
      "dám": 2653,
      "mây": 2654,
      "cồ": 2655,
      "hằng": 2656,
      "mốc": 2657,
      "nan": 2658,
      "ten": 2659,
      "thang": 2660,
      "bồi": 2661,
      "nạp": 2662,
      "sữa": 2663,
      "ros": 2664,
      "cất": 2665,
      "lô": 2666,
      "88": 2667,
      "ji": 2668,
      "msky": 2669,
      "khuyên": 2670,
      "chomsky": 2671,
      "philippines": 2672,
      "thâm": 2673,
      "his": 2674,
      "nia": 2675,
      "stan": 2676,
      "lũng": 2677,
      "fre": 2678,
      "lle": 2679,
      "pho": 2680,
      "eli": 2681,
      "iso": 2682,
      "móng": 2683,
      "rèn": 2684,
      "vay": 2685,
      "xx": 2686,
      "ell": 2687,
      "62": 2688,
      "iii": 2689,
      "39": 2690,
      "bến": 2691,
      "dược": 2692,
      "ari": 2693,
      "lym": 2694,
      "inea": 2695,
      "lây": 2696,
      "mảnh": 2697,
      "đèn": 2698,
      "ngừa": 2699,
      "tus": 2700,
      "pic": 2701,
      "liêm": 2702,
      "chester": 2703,
      "trạch": 2704,
      "buồn": 2705,
      "140": 2706,
      "sỹ": 2707,
      "ngặt": 2708,
      "guinea": 2709,
      "lụy": 2710,
      "400": 2711,
      "đam": 2712,
      "chua": 2713,
      "thám": 2714,
      "tuyết": 2715,
      "85": 2716,
      "hạm": 2717,
      "pol": 2718,
      "kỉ": 2719,
      "quách": 2720,
      "cm": 2721,
      "dệt": 2722,
      "gòn": 2723,
      "hẹp": 2724,
      "kistan": 2725,
      "lắm": 2726,
      "ml": 2727,
      "mừng": 2728,
      "tia": 2729,
      "ngọn": 2730,
      "tional": 2731,
      "bù": 2732,
      "kan": 2733,
      "tao": 2734,
      "1999": 2735,
      "war": 2736,
      "chút": 2737,
      "bàng": 2738,
      "lò": 2739,
      "tạ": 2740,
      "đằng": 2741,
      "ngài": 2742,
      "book": 2743,
      "malay": 2744,
      "hẳ": 2745,
      "pl": 2746,
      "sal": 2747,
      "tề": 2748,
      "đắp": 2749,
      "ngạn": 2750,
      "press": 2751,
      "hẳn": 2752,
      "dro": 2753,
      "ei": 2754,
      "berg": 2755,
      "hề": 2756,
      "thép": 2757,
      "2002": 2758,
      "dường": 2759,
      "rệt": 2760,
      "đấy": 2761,
      "manchester": 2762,
      "xide": 2763,
      "72": 2764,
      "sun": 2765,
      "tốn": 2766,
      "66": 2767,
      "bor": 2768,
      "ps": 2769,
      "thon": 2770,
      "giê": 2771,
      "univer": 2772,
      "73": 2773,
      "f1": 2774,
      "gra": 2775,
      "thung": 2776,
      "1992": 2777,
      "nobel": 2778,
      "nor": 2779,
      "đãi": 2780,
      "back": 2781,
      "76": 2782,
      "thợ": 2783,
      "site": 2784,
      "united": 2785,
      "đĩnh": 2786,
      "khôn": 2787,
      "rich": 2788,
      "49": 2789,
      "600": 2790,
      "das": 2791,
      "vic": 2792,
      "ms": 2793,
      "mảng": 2794,
      "sút": 2795,
      "tụng": 2796,
      "vin": 2797,
      "ghép": 2798,
      "ppen": 2799,
      "gọn": 2800,
      "mạo": 2801,
      "xỉ": 2802,
      "kha": 2803,
      "ting": 2804,
      "cáp": 2805,
      "dò": 2806,
      "giây": 2807,
      "bul": 2808,
      "cưới": 2809,
      "dừa": 2810,
      "eri": 2811,
      "brid": 2812,
      "dáng": 2813,
      "múa": 2814,
      "chở": 2815,
      "cổng": 2816,
      "ble": 2817,
      "iraq": 2818,
      "mượn": 2819,
      "sợi": 2820,
      "​​": 2821,
      "ngợi": 2822,
      "phước": 2823,
      "khê": 2824,
      "nặc": 2825,
      "rào": 2826,
      "xưởng": 2827,
      "hor": 2828,
      "muộn": 2829,
      "ht": 2830,
      "mor": 2831,
      "phẳng": 2832,
      "cụm": 2833,
      "gạch": 2834,
      "mệt": 2835,
      "đắc": 2836,
      "malaysia": 2837,
      "lồ": 2838,
      "xít": 2839,
      "ún": 2840,
      "đứa": 2841,
      "hoan": 2842,
      "1998": 2843,
      "%),": 2844,
      "dy": 2845,
      "hố": 2846,
      "hẹn": 2847,
      "triệt": 2848,
      "ama": 2849,
      "los": 2850,
      "arsen": 2851,
      "2023": 2852,
      "mé": 2853,
      "xứng": 2854,
      "thả": 2855,
      "nguyệt": 2856,
      "lụa": 2857,
      "51": 2858,
      "59": 2859,
      "61": 2860,
      "69": 2861,
      "br": 2862,
      "béo": 2863,
      "dực": 2864,
      "ff": 2865,
      "trù": 2866,
      "hon": 2867,
      "miên": 2868,
      "1930": 2869,
      "rou": 2870,
      "mùi": 2871,
      "rắn": 2872,
      "ớp": 2873,
      "\")": 2874,
      "53": 2875,
      "bri": 2876,
      "gor": 2877,
      "oc": 2878,
      "khấu": 2879,
      "hoạn": 2880,
      "willi": 2881,
      "charles": 2882,
      "ino": 2883,
      "lãm": 2884,
      "bồn": 2885,
      "pri": 2886,
      "nhan": 2887,
      "chúc": 2888,
      "khơi": 2889,
      "berlin": 2890,
      "arsenal": 2891,
      "mũi": 2892,
      "sổ": 2893,
      "then": 2894,
      "chào": 2895,
      "duyên": 2896,
      "gal": 2897,
      "hốt": 2898,
      "ky": 2899,
      "giận": 2900,
      "loa": 2901,
      "rom": 2902,
      "cối": 2903,
      "lấn": 2904,
      "nấm": 2905,
      "nano": 2906,
      "đê": 2907,
      "ngẫu": 2908,
      "64": 2909,
      "tâu": 2910,
      "chục": 2911,
      "pascal": 2912,
      "william": 2913,
      "79": 2914,
      "bành": 2915,
      "dam": 2916,
      "mỡ": 2917,
      "aus": 2918,
      "52": 2919,
      "ken": 2920,
      "vẹn": 2921,
      "1991": 2922,
      "ks": 2923,
      "nhiêu": 2924,
      "ther": 2925,
      "2025": 2926,
      "ab": 2927,
      "đạn": 2928,
      "quỳnh": 2929,
      "air": 2930,
      "lôi": 2931,
      "manh": 2932,
      "pla": 2933,
      "tràn": 2934,
      "esco": 2935,
      "liga": 2936,
      "sity": 2937,
      "gene": 2938,
      "louis": 2939,
      "cs": 2940,
      "hạo": 2941,
      "đợ": 2942,
      "ngơi": 2943,
      "hoành": 2944,
      "red": 2945,
      "bya": 2946,
      "đợt": 2947,
      "sưu": 2948,
      "ste": 2949,
      "ẫy": 2950,
      "nhậm": 2951,
      "ral": 2952,
      "1996": 2953,
      "74": 2954,
      "adi": 2955,
      "hen": 2956,
      "zil": 2957,
      "libya": 2958,
      "đắn": 2959,
      "cỡ": 2960,
      "gợi": 2961,
      "zan": 2962,
      "ngột": 2963,
      "chẩn": 2964,
      "hit": 2965,
      "(\"": 2966,
      "iv": 2967,
      "nd": 2968,
      "pen": 2969,
      "rỡ": 2970,
      "quật": 2971,
      "ian": 2972,
      "unesco": 2973,
      "54": 2974,
      "fu": 2975,
      "rẽ": 2976,
      "tung": 2977,
      "đập": 2978,
      "vành": 2979,
      "ley": 2980,
      "báu": 2981,
      "mường": 2982,
      "súc": 2983,
      "mòn": 2984,
      "zu": 2985,
      "vợt": 2986,
      "ds": 2987,
      "tú": 2988,
      "khuất": 2989,
      "1954": 2990,
      "800": 2991,
      "cong": 2992,
      "nếp": 2993,
      "rô": 2994,
      "trôi": 2995,
      "gp": 2996,
      "hỏng": 2997,
      "rạp": 2998,
      "tur": 2999,
      "mada": 3000,
      "machine": 3001,
      "lắp": 3002,
      "vở": 3003,
      "chôn": 3004,
      "bah": 3005,
      "1000": 3006,
      "cù": 3007,
      "ethi": 3008,
      "gua": 3009,
      "mặn": 3010,
      "nồng": 3011,
      "vựng": 3012,
      "ghế": 3013,
      "versta": 3014,
      "python": 3015,
      "george": 3016,
      "verstappen": 3017,
      "91": 3018,
      "bái": 3019,
      "thẻ": 3020,
      "1949": 3021,
      "ak": 3022,
      "cười": 3023,
      "cẩm": 3024,
      "pel": 3025,
      "xảo": 3026,
      "ón": 3027,
      "khen": 3028,
      "bún": 3029,
      "gay": 3030,
      "mm": 3031,
      "táo": 3032,
      "phẫu": 3033,
      "ins": 3034,
      "gascar": 3035,
      "university": 3036,
      "madagascar": 3037,
      "gánh": 3038,
      "nêu": 3039,
      "sắm": 3040,
      "wo": 3041,
      "tràng": 3042,
      "toản": 3043,
      "khoán": 3044,
      "gram": 3045,
      "karta": 3046,
      "dạo": 3047,
      "ie": 3048,
      "thiếp": 3049,
      "dor": 3050,
      "liễu": 3051,
      "xix": 3052,
      "dĩ": 3053,
      "hmông": 3054,
      "jam": 3055,
      "mac": 3056,
      "website": 3057,
      "frank": 3058,
      "bồng": 3059,
      "quyến": 3060,
      "toà": 3061,
      "covid": 3062,
      "opia": 3063,
      "ethiopia": 3064,
      "húy": 3065,
      "lạt": 3066,
      "ster": 3067,
      "túy": 3068,
      "57": 3069,
      "bọc": 3070,
      "dắt": 3071,
      "rác": 3072,
      "ỡi": 3073,
      "national": 3074,
      "tions": 3075,
      "cali": 3076,
      "paul": 3077,
      "chụp": 3078,
      "ngoan": 3079,
      "han": 3080,
      "ộm": 3081,
      "chè": 3082,
      "trội": 3083,
      "homo": 3084,
      "khoát": 3085,
      "turing": 3086,
      "lap": 3087,
      "bóc": 3088,
      "jer": 3089,
      "nhầm": 3090,
      "nhắn": 3091,
      "trướng": 3092,
      "quyện": 3093,
      "cảo": 3094,
      "emi": 3095,
      "poli": 3096,
      "nt": 3097,
      "nhãn": 3098,
      "quà": 3099,
      "hydro": 3100,
      "niger": 3101,
      "bây": 3102,
      "chó": 3103,
      "assyria": 3104,
      "app": 3105,
      "dấy": 3106,
      "mỏi": 3107,
      "1995": 3108,
      "56": 3109,
      "ía": 3110,
      "thô": 3111,
      "chém": 3112,
      "brazil": 3113,
      "bốc": 3114,
      "rực": 3115,
      "sé": 3116,
      "chèo": 3117,
      "ess": 3118,
      "bas": 3119,
      "94": 3120,
      "bông": 3121,
      "diệm": 3122,
      "xướng": 3123,
      "trans": 3124,
      "khớp": 3125,
      "bol": 3126,
      "',": 3127,
      "bê": 3128,
      "hưu": 3129,
      "pc": 3130,
      "tháo": 3131,
      "stem": 3132,
      "otto": 3133,
      "mộng": 3134,
      "mầm": 3135,
      "ốp": 3136,
      "iran": 3137,
      "hawking": 3138,
      "hin": 3139,
      "96": 3140,
      "ag": 3141,
      "bro": 3142,
      "dai": 3143,
      "mẫn": 3144,
      "đầm": 3145,
      "nhược": 3146,
      "chênh": 3147,
      "hầm": 3148,
      "oa": 3149,
      "olym": 3150,
      "twi": 3151,
      "city": 3152,
      "califor": 3153,
      "leo": 3154,
      "rạch": 3155,
      "tọa": 3156,
      "vú": 3157,
      "hoãn": 3158,
      "pakistan": 3159,
      "(,": 3160,
      "sim": 3161,
      "trâu": 3162,
      "iếng": 3163,
      "delhi": 3164,
      "hungary": 3165,
      "tể": 3166,
      "ward": 3167,
      "ẹt": 3168,
      "nhì": 3169,
      "chay": 3170,
      "treo": 3171,
      "california": 3172,
      "ion": 3173,
      "tóc": 3174,
      "ngộ": 3175,
      "phiến": 3176,
      "all": 3177,
      "1994": 3178,
      "1946": 3179,
      "wayback": 3180,
      "html": 3181,
      "eng": 3182,
      "mươi": 3183,
      "xào": 3184,
      "ựu": 3185,
      "chuyền": 3186,
      "games": 3187,
      "od": 3188,
      "yu": 3189,
      "nhàng": 3190,
      "nhiếp": 3191,
      "sốt": 3192,
      "bour": 3193,
      "david": 3194,
      "burg": 3195,
      "varman": 3196,
      "gai": 3197,
      "lí": 3198,
      "nở": 3199,
      "tz": 3200,
      "đạp": 3201,
      "ngã": 3202,
      "cua": 3203,
      "jakarta": 3204,
      "86": 3205,
      "cpu": 3206,
      "phượng": 3207,
      "jaya": 3208,
      "was": 3209,
      "chìa": 3210,
      "logy": 3211,
      "truất": 3212,
      "twitter": 3213,
      "tựa": 3214,
      "130": 3215,
      "trừu": 3216,
      "open": 3217,
      "adidas": 3218,
      "bs": 3219,
      "dưa": 3220,
      "lặng": 3221,
      "mạn": 3222,
      "tạc": 3223,
      "xí": 3224,
      "ish": 3225,
      "asean": 3226,
      "dải": 3227,
      "rước": 3228,
      "tar": 3229,
      "ếch": 3230,
      "ghan": 3231,
      "bếp": 3232,
      "cõi": 3233,
      "gương": 3234,
      "lf": 3235,
      "sọ": 3236,
      "ỗng": 3237,
      "thỉnh": 3238,
      "game": 3239,
      "bụi": 3240,
      "méxico": 3241,
      "120": 3242,
      "thiêng": 3243,
      "trắc": 3244,
      "ray": 3245,
      "ern": 3246,
      "und": 3247,
      "cid": 3248,
      "ottoman": 3249,
      "87": 3250,
      "khe": 3251,
      "'.": 3252,
      "df": 3253,
      "hái": 3254,
      "tiêm": 3255,
      "đán": 3256,
      "sey": 3257,
      "63": 3258,
      "sàn": 3259,
      "vôi": 3260,
      "wer": 3261,
      "zia": 3262,
      "cript": 3263,
      "blo": 3264,
      "nảy": 3265,
      "spe": 3266,
      "nhai": 3267,
      "trượt": 3268,
      "tive": 3269,
      "tôm": 3270,
      "1989": 3271,
      "bút": 3272,
      "kín": 3273,
      "tiếc": 3274,
      "1940": 3275,
      "mone": 3276,
      "cc": 3277,
      "mù": 3278,
      "ẻo": 3279,
      "pales": 3280,
      "cạn": 3281,
      "cis": 3282,
      "chầu": 3283,
      "ela": 3284,
      "bit": 3285,
      "vec": 3286,
      "laptop": 3287,
      "cừ": 3288,
      "sét": 3289,
      "xôi": 3290,
      "xóm": 3291,
      "ngạc": 3292,
      "ini": 3293,
      "play": 3294,
      "xấp": 3295,
      "zo": 3296,
      "sic": 3297,
      "dốc": 3298,
      "hạch": 3299,
      "mau": 3300,
      "nai": 3301,
      "viêm": 3302,
      "khoái": 3303,
      "copa": 3304,
      "cd": 3305,
      "mắn": 3306,
      "system": 3307,
      "line": 3308,
      "ngà": 3309,
      "phở": 3310,
      "1920": 3311,
      "alex": 3312,
      "suối": 3313,
      "160": 3314,
      "1986": 3315,
      "dioxide": 3316,
      "xen": 3317,
      "zi": 3318,
      "đực": 3319,
      "tory": 3320,
      "khoai": 3321,
      "ling": 3322,
      "1976": 3323,
      "palestine": 3324,
      "cr": 3325,
      "hel": 3326,
      "éon": 3327,
      "chừng": 3328,
      "trọt": 3329,
      "khanh": 3330,
      "mãnh": 3331,
      "ment": 3332,
      "maya": 3333,
      "afghan": 3334,
      ".,": 3335,
      "kỵ": 3336,
      "sha": 3337,
      "ul": 3338,
      "huân": 3339,
      "neu": 3340,
      "mani": 3341,
      "hei": 3342,
      "xoay": 3343,
      "\"),": 3344,
      "\").": 3345,
      "%)": 3346,
      "chel": 3347,
      "int": 3348,
      "ori": 3349,
      "musk": 3350,
      "bos": 3351,
      "nhiễu": 3352,
      "ction": 3353,
      "mỏng": 3354,
      "đạc": 3355,
      "nghịch": 3356,
      "lor": 3357,
      "khuê": 3358,
      "james": 3359,
      "82": 3360,
      "acid": 3361,
      "dong": 3362,
      "dật": 3363,
      "gus": 3364,
      "heo": 3365,
      "giỗ": 3366,
      "ence": 3367,
      "sumer": 3368,
      "poly": 3369,
      "giêng": 3370,
      "afghanistan": 3371,
      "bin": 3372,
      "cớ": 3373,
      "hol": 3374,
      "rang": 3375,
      "ale": 3376,
      "bén": 3377,
      "mid": 3378,
      "bridge": 3379,
      "89": 3380,
      "jor": 3381,
      "pua": 3382,
      "ple": 3383,
      "ami": 3384,
      "papua": 3385,
      "1955": 3386,
      "bắp": 3387,
      "phò": 3388,
      "cuba": 3389,
      "nasa": 3390,
      "cài": 3391,
      "ker": 3392,
      "ằn": 3393,
      "doãn": 3394,
      "1993": 3395,
      "set": 3396,
      "deniso": 3397,
      "hawai": 3398,
      "ibm": 3399,
      "honda": 3400,
      "denisova": 3401,
      "cồn": 3402,
      "miến": 3403,
      "sci": 3404,
      "tí": 3405,
      "vắng": 3406,
      "đính": 3407,
      "cher": 3408,
      "trúng": 3409,
      "robert": 3410,
      "hãi": 3411,
      "htv": 3412,
      "kiềm": 3413,
      "mũ": 3414,
      "mali": 3415,
      "tày": 3416,
      "ãng": 3417,
      "pelé": 3418,
      "81": 3419,
      "je": 3420,
      "vé": 3421,
      "ụng": 3422,
      "thở": 3423,
      "gil": 3424,
      "bus": 3425,
      "ghana": 3426,
      "she": 3427,
      "jean": 3428,
      "nùng": 3429,
      "tóm": 3430,
      "chạp": 3431,
      "code": 3432,
      "170": 3433,
      "ferra": 3434,
      "apple": 3435,
      "bích": 3436,
      "fri": 3437,
      "sar": 3438,
      "giòn": 3439,
      "tex": 3440,
      "đáy": 3441,
      "1968": 3442,
      "clar": 3443,
      "lenin": 3444,
      "++": 3445,
      "bể": 3446,
      "kẽ": 3447,
      "lar": 3448,
      "đừng": 3449,
      "chiên": 3450,
      "phy": 3451,
      "ture": 3452,
      "napol": 3453,
      "hat": 3454,
      "hara": 3455,
      "london": 3456,
      "hormone": 3457,
      "napoléon": 3458,
      "gru": 3459,
      "mp": 3460,
      "ýt": 3461,
      "phả": 3462,
      "phiệt": 3463,
      "lom": 3464,
      "tưới": 3465,
      "tịnh": 3466,
      "%).": 3467,
      "];": 3468,
      "bận": 3469,
      "bơi": 3470,
      "cỗ": 3471,
      "dâu": 3472,
      "dồi": 3473,
      "hiếp": 3474,
      "vội": 3475,
      "ngạch": 3476,
      "phì": 3477,
      "dis": 3478,
      "marx": 3479,
      "1988": 3480,
      "bbc": 3481,
      "hựu": 3482,
      "lỵ": 3483,
      "rna": 3484,
      "via": 3485,
      "đống": 3486,
      "đắt": 3487,
      "trọn": 3488,
      "sou": 3489,
      "1973": 3490,
      "wales": 3491,
      "olympic": 3492,
      "700": 3493,
      "ea": 3494,
      "sạn": 3495,
      "vel": 3496,
      "òm": 3497,
      "nham": 3498,
      "co2": 3499,
      "max": 3500,
      "1982": 3501,
      "myan": 3502,
      "gả": 3503,
      "lọt": 3504,
      "nàng": 3505,
      "nal": 3506,
      "sis": 3507,
      "châm": 3508,
      "hiro": 3509,
      "saint": 3510,
      "ferrari": 3511,
      "lau": 3512,
      "lánh": 3513,
      "lốp": 3514,
      "xăng": 3515,
      "liễn": 3516,
      "beria": 3517,
      "bụng": 3518,
      "ct": 3519,
      "ns": 3520,
      "ngãi": 3521,
      "qui": 3522,
      "luồng": 3523,
      "cưỡng": 3524,
      "micha": 3525,
      "1971": 3526,
      "hawaii": 3527,
      "michael": 3528,
      "83": 3529,
      "lỡ": 3530,
      "lùi": 3531,
      "mc": 3532,
      "mía": 3533,
      "nút": 3534,
      "rễ": 3535,
      "ngai": 3536,
      "nhâm": 3537,
      "trễ": 3538,
      "khan": 3539,
      "andro": 3540,
      "ney": 3541,
      "sion": 3542,
      "84": 3543,
      "bes": 3544,
      "húc": 3545,
      "kép": 3546,
      "lla": 3547,
      "vóc": 3548,
      "xon": 3549,
      "khuếch": 3550,
      "mit": 3551,
      "ght": 3552,
      "port": 3553,
      "gán": 3554,
      "mel": 3555,
      "wn": 3556,
      "1900": 3557,
      "cos": 3558,
      "bull": 3559,
      "para": 3560,
      "gs": 3561,
      "neo": 3562,
      "sel": 3563,
      "thấu": 3564,
      "ding": 3565,
      "mosk": 3566,
      "1978": 3567,
      "cambridge": 3568,
      "1959": 3569,
      "moskva": 3570,
      "diêm": 3571,
      "rể": 3572,
      "rửa": 3573,
      "chưởng": 3574,
      "phôi": 3575,
      "cra": 3576,
      "dặn": 3577,
      "gò": 3578,
      "hận": 3579,
      "nhã": 3580,
      "thự": 3581,
      "china": 3582,
      "khiết": 3583,
      "ươn": 3584,
      "hoại": 3585,
      "dos": 3586,
      "armen": 3587,
      "vịt": 3588,
      "alia": 3589,
      "lãi": 3590,
      "1979": 3591,
      "gruzia": 3592,
      "armenia": 3593,
      "bơ": 3594,
      "nes": 3595,
      "ngưng": 3596,
      "chìm": 3597,
      "đếm": 3598,
      "doi": 3599,
      "lit": 3600,
      "1965": 3601,
      "compu": 3602,
      "premi": 3603,
      "myanmar": 3604,
      "dọn": 3605,
      "yết": 3606,
      "đày": 3607,
      "ngục": 3608,
      "mag": 3609,
      "tec": 3610,
      "mos": 3611,
      "tics": 3612,
      "112": 3613,
      "bre": 3614,
      "cli": 3615,
      "dàn": 3616,
      "dào": 3617,
      "io": 3618,
      "ls": 3619,
      "lấp": 3620,
      "nung": 3621,
      "nén": 3622,
      "rổ": 3623,
      "tun": 3624,
      "tủy": 3625,
      "uỷ": 3626,
      "ván": 3627,
      "ngòi": 3628,
      "thắt": 3629,
      "lav": 3630,
      "super": 3631,
      "hing": 3632,
      "rio": 3633,
      "ghét": 3634,
      "1983": 3635,
      "rain": 3636,
      "grdp": 3637,
      "cler": 3638,
      "1802": 3639,
      "master": 3640,
      "gon": 3641,
      "lưng": 3642,
      "pau": 3643,
      "uất": 3644,
      "thính": 3645,
      "thóc": 3646,
      "chile": 3647,
      "1948": 3648,
      "1974": 3649,
      "timor": 3650,
      "].": 3651,
      "bla": 3652,
      "cau": 3653,
      "kg": 3654,
      "mờ": 3655,
      "nương": 3656,
      "qat": 3657,
      "xê": 3658,
      "xói": 3659,
      "nhữ": 3660,
      "nhục": 3661,
      "trộm": 3662,
      "phồn": 3663,
      "khâu": 3664,
      "huỳnh": 3665,
      "muham": 3666,
      "nato": 3667,
      "1947": 3668,
      "bulgar": 3669,
      "kon": 3670,
      "lem": 3671,
      "chả": 3672,
      "khương": 3673,
      "chuối": 3674,
      "lộn": 3675,
      "jose": 3676,
      "hãm": 3677,
      "mồi": 3678,
      "tem": 3679,
      "vas": 3680,
      "đứt": 3681,
      "inch": 3682,
      "khoá": 3683,
      "hợi": 3684,
      "1981": 3685,
      "beng": 3686,
      "1956": 3687,
      "xviii": 3688,
      "dd": 3689,
      "dội": 3690,
      "ngọ": 3691,
      "khố": 3692,
      "intel": 3693,
      "erbai": 3694,
      "lus": 3695,
      "guay": 3696,
      "đuôi": 3697,
      "azerbai": 3698,
      "nigeria": 3699,
      "heidel": 3700,
      "bulgaria": 3701,
      "azerbaijan": 3702,
      "ear": 3703,
      "flo": 3704,
      "mạt": 3705,
      "nại": 3706,
      "rẻ": 3707,
      "sho": 3708,
      "ville": 3709,
      "soái": 3710,
      "xit": 3711,
      "1987": 3712,
      "park": 3713,
      "1964": 3714,
      "face": 3715,
      "shima": 3716,
      "oxford": 3717,
      "ges": 3718,
      "kel": 3719,
      "nem": 3720,
      "chán": 3721,
      "1917": 3722,
      "mat": 3723,
      "1984": 3724,
      "1985": 3725,
      "1962": 3726,
      "cày": 3727,
      "ey": 3728,
      "lách": 3729,
      "lẫy": 3730,
      "măng": 3731,
      "vươn": 3732,
      "ww": 3733,
      "thổi": 3734,
      "xuôi": 3735,
      "1958": 3736,
      "desh": 3737,
      "gregor": 3738,
      "android": 3739,
      "250": 3740,
      "dẻo": 3741,
      "mọc": 3742,
      "seo": 3743,
      "tấu": 3744,
      "vần": 3745,
      "von": 3746,
      "ves": 3747,
      "wan": 3748,
      "ngâm": 3749,
      "chưng": 3750,
      "tour": 3751,
      "soci": 3752,
      "ist": 3753,
      "andre": 3754,
      "khóc": 3755,
      "sikh": 3756,
      "bangla": 3757,
      "1972": 3758,
      "thùy": 3759,
      "manila": 3760,
      "ara": 3761,
      "clu": 3762,
      "kĩ": 3763,
      "sầm": 3764,
      "wai": 3765,
      "chen": 3766,
      "nghiêng": 3767,
      "bưu": 3768,
      "rộn": 3769,
      "sri": 3770,
      "vd": 3771,
      "vla": 3772,
      "xơ": 3773,
      "²,": 3774,
      "chéo": 3775,
      "chris": 3776,
      "colom": 3777,
      "xavi": 3778,
      "mini": 3779,
      "ny": 3780,
      "ob": 3781,
      "pre": 3782,
      "tê": 3783,
      "tle": 3784,
      "nhở": 3785,
      "thấm": 3786,
      "giấu": 3787,
      "pit": 3788,
      "1941": 3789,
      "bổng": 3790,
      "1966": 3791,
      "international": 3792,
      "1939": 3793,
      "brun": 3794,
      "gamesh": 3795,
      "gilgamesh": 3796,
      "muhammad": 3797,
      "bầy": 3798,
      "jec": 3799,
      "lừa": 3800,
      "sương": 3801,
      "tảo": 3802,
      "ếng": 3803,
      "quỷ": 3804,
      "quét": 3805,
      "giếng": 3806,
      "phím": 3807,
      "lecler": 3808,
      "1969": 3809,
      "premier": 3810,
      "leclerc": 3811,
      "kor": 3812,
      "ré": 3813,
      "nhắm": 3814,
      "1961": 3815,
      "main": 3816,
      "prix": 3817,
      "cắm": 3818,
      "thạnh": 3819,
      "cus": 3820,
      "isto": 3821,
      "anda": 3822,
      "use": 3823,
      "vol": 3824,
      "francis": 3825,
      "ball": 3826,
      "richard": 3827,
      "ces": 3828,
      "são": 3829,
      "ub": 3830,
      "nhựa": 3831,
      "chai": 3832,
      "quấy": 3833,
      "rome": 3834,
      "buýt": 3835,
      "mara": 3836,
      "peter": 3837,
      "pub": 3838,
      "tệp": 3839,
      "qatar": 3840,
      "dậu": 3841,
      "ez": 3842,
      "fla": 3843,
      "mồng": 3844,
      "tản": 3845,
      "túng": 3846,
      "tắm": 3847,
      "ngõ": 3848,
      "uyển": 3849,
      "amaz": 3850,
      "lic": 3851,
      "amazon": 3852,
      "cấy": 3853,
      "mỉ": 3854,
      "spa": 3855,
      "wat": 3856,
      "ùn": 3857,
      "quái": 3858,
      "giường": 3859,
      "1912": 3860,
      "alan": 3861,
      "thoảng": 3862,
      "xiv": 3863,
      "roup": 3864,
      "kiêu": 3865,
      "lim": 3866,
      "mến": 3867,
      "túi": 3868,
      "uel": 3869,
      "trứ": 3870,
      "gieo": 3871,
      "ani": 3872,
      "roman": 3873,
      "time": 3874,
      "ngủi": 3875,
      ".)": 3876,
      "ath": 3877,
      "bạt": 3878,
      "cởi": 3879,
      "oan": 3880,
      "pdf": 3881,
      "khử": 3882,
      "mann": 3883,
      "bio": 3884,
      "victor": 3885,
      "slo": 3886,
      "uru": 3887,
      "².": 3888,
      "ameri": 3889,
      "ail": 3890,
      "sửu": 3891,
      "sul": 3892,
      "thomas": 3893,
      "wiki": 3894,
      "xoáy": 3895,
      "henry": 3896,
      "bangladesh": 3897,
      "aki": 3898,
      "cay": 3899,
      "pra": 3900,
      "sch": 3901,
      "éri": 3902,
      "ngẫm": 3903,
      "trẫm": 3904,
      "ration": 3905,
      "cac": 3906,
      "khuynh": 3907,
      "đổng": 3908,
      "đệm": 3909,
      "ndt": 3910,
      "bừa": 3911,
      "fc": 3912,
      "stu": 3913,
      "nhung": 3914,
      "phà": 3915,
      "hoán": 3916,
      "aimar": 3917,
      "tuất": 3918,
      "manga": 3919,
      "latin": 3920,
      "dura": 3921,
      "nguôi": 3922,
      "pole": 3923,
      "point": 3924,
      "byzan": 3925,
      "history": 3926,
      "?\"": 3927,
      "gpt": 3928,
      "lộng": 3929,
      "rem": 3930,
      "zy": 3931,
      "tuyền": 3932,
      "tian": 3933,
      "chat": 3934,
      "bahrain": 3935,
      "bengal": 3936,
      "bộc": 3937,
      "cp": 3938,
      "ip": 3939,
      "kai": 3940,
      "om": 3941,
      "ráp": 3942,
      "sin": 3943,
      "sụt": 3944,
      "đeo": 3945,
      "ngón": 3946,
      "thốn": 3947,
      "aires": 3948,
      "cuống": 3949,
      "arus": 3950,
      "enos": 3951,
      "buenos": 3952,
      "cừu": 3953,
      "fia": 3954,
      "kiếp": 3955,
      "nỏ": 3956,
      "sấm": 3957,
      "tý": 3958,
      "thạo": 3959,
      "chàng": 3960,
      "trệ": 3961,
      "die": 3962,
      "sum": 3963,
      "1957": 3964,
      "france": 3965,
      "jersey": 3966,
      "hiroshima": 3967,
      "110": 3968,
      "kị": 3969,
      "lậu": 3970,
      "mclar": 3971,
      "nát": 3972,
      "ròi": 3973,
      "smi": 3974,
      "đành": 3975,
      "đòn": 3976,
      "đèo": 3977,
      "chì": 3978,
      "off": 3979,
      "star": 3980,
      "1789": 3981,
      "xvii": 3982,
      "darwin": 3983,
      "séc": 3984,
      "mclaren": 3985,
      "apar": 3986,
      "gang": 3987,
      "gau": 3988,
      "vạch": 3989,
      "ấng": 3990,
      "ễm": 3991,
      "nhúng": 3992,
      "thê": 3993,
      "angel": 3994,
      "tos": 3995,
      "huyên": 3996,
      "mol": 3997,
      "mart": 3998,
      "1963": 3999,
      "llar": 4000,
      "ault": 4001,
      "akka": 4002,
      "bourg": 4003,
      "kas": 4004,
      "rd": 4005,
      "tồi": 4006,
      "west": 4007,
      "basic": 4008,
      "liver": 4009,
      "1967": 4010,
      "dịu": 4011,
      "austr": 4012,
      "cacbon": 4013,
      "bẩm": 4014,
      "group": 4015,
      "kề": 4016,
      "mồ": 4017,
      "oanh": 4018,
      "sp": 4019,
      "ượm": 4020,
      "1914": 4021,
      "lum": 4022,
      "catal": 4023,
      "1944": 4024,
      "smith": 4025,
      "ado": 4026,
      "has": 4027,
      "mổ": 4028,
      "zim": 4029,
      "đười": 4030,
      "đốn": 4031,
      "augus": 4032,
      "ưởi": 4033,
      "ero": 4034,
      "mula": 4035,
      "kil": 4036,
      "mark": 4037,
      "news": 4038,
      "pedia": 4039,
      "peru": 4040,
      "mala": 4041,
      "karl": 4042,
      "vectơ": 4043,
      "fried": 4044,
      "113": 4045,
      "cre": 4046,
      "cent": 4047,
      "dính": 4048,
      "plas": 4049,
      "sào": 4050,
      "sem": 4051,
      "tiệp": 4052,
      "yến": 4053,
      "dou": 4054,
      "alen": 4055,
      "tum": 4056,
      "motor": 4057,
      "lles": 4058,
      "aco": 4059,
      "bệ": 4060,
      "gãy": 4061,
      "lượm": 4062,
      "pes": 4063,
      "ston": 4064,
      "đục": 4065,
      "vũng": 4066,
      "ast": 4067,
      "lưỡi": 4068,
      "file": 4069,
      "belarus": 4070,
      "byzantine": 4071,
      "ek": 4072,
      "lanh": 4073,
      "oai": 4074,
      "vn": 4075,
      "íp": 4076,
      "đâm": 4077,
      "trác": 4078,
      "trầu": 4079,
      "phun": 4080,
      "onso": 4081,
      "logo": 4082,
      "ism": 4083,
      "khói": 4084,
      "polis": 4085,
      "1977": 4086,
      "ômét": 4087,
      "langua": 4088,
      "serbia": 4089,
      "johnson": 4090,
      "gregory": 4091,
      "bru": 4092,
      "cle": 4093,
      "dập": 4094,
      "fin": 4095,
      "gỏng": 4096,
      "ig": 4097,
      "lề": 4098,
      "lột": 4099,
      "lừng": 4100,
      "lầy": 4101,
      "mị": 4102,
      "mày": 4103,
      "ou": 4104,
      "slav": 4105,
      "đun": 4106,
      "trau": 4107,
      "indra": 4108,
      "email": 4109,
      "vis": 4110,
      "huynh": 4111,
      "muôn": 4112,
      "lyon": 4113,
      "nic": 4114,
      "pera": 4115,
      "javas": 4116,
      "volu": 4117,
      "work": 4118,
      "congo": 4119,
      "hindu": 4120,
      "washing": 4121,
      "javascript": 4122,
      "fan": 4123,
      "gro": 4124,
      "hua": 4125,
      "ix": 4126,
      "lặn": 4127,
      "sto": 4128,
      "vã": 4129,
      "well": 4130,
      "ùm": 4131,
      "thạc": 4132,
      "chước": 4133,
      "khỉ": 4134,
      "khống": 4135,
      "quỳ": 4136,
      "vik": 4137,
      "ush": 4138,
      "sea": 4139,
      "merce": 4140,
      "kov": 4141,
      "heidelberg": 4142,
      "900": 4143,
      "db": 4144,
      "dem": 4145,
      "hò": 4146,
      "hắc": 4147,
      "kin": 4148,
      "rải": 4149,
      "đặn": 4150,
      "php": 4151,
      "inc": 4152,
      "luxem": 4153,
      "ema": 4154,
      "emen": 4155,
      "lee": 4156,
      "rez": 4157,
      "tripoli": 4158,
      "cket": 4159,
      "cnn": 4160,
      "1885": 4161,
      "hitler": 4162,
      "rôma": 4163,
      "jordan": 4164,
      "tím": 4165,
      "dê": 4166,
      "fed": 4167,
      "glo": 4168,
      "lát": 4169,
      "sừng": 4170,
      "tủ": 4171,
      "tẩm": 4172,
      "tsu": 4173,
      "ngung": 4174,
      "ngưu": 4175,
      "thong": 4176,
      "toan": 4177,
      "tuồng": 4178,
      "bab": 4179,
      "chuông": 4180,
      "mum": 4181,
      "rey": 4182,
      "cape": 4183,
      "1400": 4184,
      "formula": 4185,
      "xoắn": 4186,
      "istanbul": 4187,
      "bế": 4188,
      "bỗng": 4189,
      "djo": 4190,
      "nis": 4191,
      "str": 4192,
      "tỏi": 4193,
      "nhé": 4194,
      "thìn": 4195,
      "bush": 4196,
      "pool": 4197,
      "jour": 4198,
      "paulo": 4199,
      "kilômét": 4200,
      "washington": 4201,
      "\";": 4202,
      "lồng": 4203,
      "nâu": 4204,
      "tộ": 4205,
      "wis": 4206,
      "ngắm": 4207,
      "khinh": 4208,
      "cuồng": 4209,
      "bou": 4210,
      "juli": 4211,
      "computer": 4212,
      "mercedes": 4213,
      "din": 4214,
      "diêu": 4215,
      "dvd": 4216,
      "hả": 4217,
      "lội": 4218,
      "spor": 4219,
      "sườn": 4220,
      "thiều": 4221,
      "anti": 4222,
      "ươm": 4223,
      "ers": 4224,
      "constan": 4225,
      "sapi": 4226,
      "km2": 4227,
      "monaco": 4228,
      "117": 4229,
      "cúc": 4230,
      "dri": 4231,
      "hao": 4232,
      "mèo": 4233,
      "nơ": 4234,
      "oán": 4235,
      "răn": 4236,
      "sấu": 4237,
      "nhỉ": 4238,
      "erec": 4239,
      "vijaya": 4240,
      "sing": 4241,
      "usb": 4242,
      "1428": 4243,
      "1942": 4244,
      "comm": 4245,
      "1936": 4246,
      "ject": 4247,
      "erectus": 4248,
      "ev": 4249,
      "from": 4250,
      "vỗ": 4251,
      "phen": 4252,
      "1911": 4253,
      "ngoai": 4254,
      "ala": 4255,
      "sus": 4256,
      "golf": 4257,
      "ware": 4258,
      "club": 4259,
      "angeles": 4260,
      "3000": 4261,
      "cọ": 4262,
      "kình": 4263,
      "kiêng": 4264,
      "kur": 4265,
      "lé": 4266,
      "lầu": 4267,
      "xông": 4268,
      "ìu": 4269,
      "chật": 4270,
      "quãng": 4271,
      "doạ": 4272,
      "khoang": 4273,
      "alin": 4274,
      "luộc": 4275,
      "sahara": 4276,
      "berber": 4277,
      "pier": 4278,
      "nixon": 4279,
      "nou": 4280,
      "kovic": 4281,
      "foot": 4282,
      "liverpool": 4283,
      "luxembourg": 4284,
      "djokovic": 4285,
      "\"[": 4286,
      "gối": 4287,
      "tà": 4288,
      "vả": 4289,
      "xv": 4290,
      "nhạt": 4291,
      "khiếp": 4292,
      "habi": 4293,
      "kata": 4294,
      "kuwai": 4295,
      "joseph": 4296,
      "mumbai": 4297,
      "kuwait": 4298,
      "(?": 4299,
      "bun": 4300,
      "bênh": 4301,
      "htt": 4302,
      "heli": 4303,
      "mác": 4304,
      "nê": 4305,
      "qh": 4306,
      "ngươi": 4307,
      "độn": 4308,
      "auto": 4309,
      "liu": 4310,
      "mir": 4311,
      "1943": 4312,
      "camp": 4313,
      "1953": 4314,
      "aztec": 4315,
      "wood": 4316,
      "science": 4317,
      "colombia": 4318,
      "brunei": 4319,
      "\"...": 4320,
      "bong": 4321,
      "bran": 4322,
      "far": 4323,
      "vãn": 4324,
      "phiền": 4325,
      "phiêu": 4326,
      "log": 4327,
      "erer": 4328,
      "ual": 4329,
      "col": 4330,
      "tide": 4331,
      "tech": 4332,
      "hybrid": 4333,
      "1788": 4334,
      "1407": 4335,
      "federer": 4336,
      "gác": 4337,
      "kí": 4338,
      "kem": 4339,
      "pia": 4340,
      "viếng": 4341,
      "xay": 4342,
      "1919": 4343,
      "1918": 4344,
      "1916": 4345,
      "alban": 4346,
      "tuỳ": 4347,
      "sub": 4348,
      "suôn": 4349,
      "dad": 4350,
      "mobi": 4351,
      "xiii": 4352,
      "byte": 4353,
      "unix": 4354,
      "facebook": 4355,
      "volution": 4356,
      "clo": 4357,
      "dr": 4358,
      "ep": 4359,
      "hạc": 4360,
      "mĩ": 4361,
      "shu": 4362,
      "tis": 4363,
      "thềm": 4364,
      "chần": 4365,
      "trỏ": 4366,
      "nghiện": 4367,
      "rad": 4368,
      "quyên": 4369,
      "sur": 4370,
      "tico": 4371,
      "nagas": 4372,
      "martin": 4373,
      "vene": 4374,
      "word": 4375,
      "wide": 4376,
      "ensis": 4377,
      "rãnh": 4378,
      "sapiens": 4379,
      "nagasaki": 4380,
      "bám": 4381,
      "lia": 4382,
      "mâm": 4383,
      "mứt": 4384,
      "tẩy": 4385,
      "zon": 4386,
      "éc": 4387,
      "đấng": 4388,
      "vir": 4389,
      "sor": 4390,
      "rock": 4391,
      "post": 4392,
      "nik": 4393,
      "1951": 4394,
      "edward": 4395,
      "1883": 4396,
      "trùm": 4397,
      "williams": 4398,
      "space": 4399,
      "cris": 4400,
      "háo": 4401,
      "kö": 4402,
      "oxide": 4403,
      "plo": 4404,
      "sán": 4405,
      "slam": 4406,
      "tớ": 4407,
      "đùa": 4408,
      "chọc": 4409,
      "phổi": 4410,
      "phone": 4411,
      "gin": 4412,
      "name": 4413,
      "khiêu": 4414,
      "dian": 4415,
      "bộn": 4416,
      "haiti": 4417,
      "đoái": 4418,
      "eld": 4419,
      "mic": 4420,
      "data": 4421,
      "...\"": 4422,
      "forbes": 4423,
      "1938": 4424,
      "cúm": 4425,
      "1884": 4426,
      "champa": 4427,
      "ttel": 4428,
      "litva": 4429,
      "flash": 4430,
      "journal": 4431,
      "bì": 4432,
      "blu": 4433,
      "cer": 4434,
      "fra": 4435,
      "gaul": 4436,
      "hươ": 4437,
      "kiệu": 4438,
      "kẹt": 4439,
      "lung": 4440,
      "lứa": 4441,
      "say": 4442,
      "tòng": 4443,
      "cht": 4444,
      "trỗi": 4445,
      "khiếm": 4446,
      "ques": 4447,
      "dova": 4448,
      "vii": 4449,
      "roger": 4450,
      "buồng": 4451,
      "sudan": 4452,
      "sailles": 4453,
      "versailles": 4454,
      "atia": 4455,
      "croatia": 4456,
      "prin": 4457,
      "bùn": 4458,
      "polyn": 4459,
      "moldova": 4460,
      "akkad": 4461,
      "language": 4462,
      "hươu": 4463,
      "cành": 4464,
      "gran": 4465,
      "him": 4466,
      "ql": 4467,
      "rùa": 4468,
      "vặt": 4469,
      "thiểm": 4470,
      "chóc": 4471,
      "ayut": 4472,
      "1922": 4473,
      "vich": 4474,
      "thaya": 4475,
      "roma": 4476,
      "milan": 4477,
      "ning": 4478,
      "cing": 4479,
      "german": 4480,
      "ayutthaya": 4481,
      ".;": 4482,
      ".\".": 4483,
      "220": 4484,
      "gân": 4485,
      "plan": 4486,
      "tp": 4487,
      "xả": 4488,
      "xách": 4489,
      "đụng": 4490,
      "nhụ": 4491,
      "vie": 4492,
      "bank": 4493,
      "mão": 4494,
      "bayern": 4495,
      "med": 4496,
      "1952": 4497,
      "sony": 4498,
      "times": 4499,
      "balkan": 4500,
      "free": 4501,
      "borneo": 4502,
      "guar": 4503,
      "tunis": 4504,
      "dbms": 4505,
      "115": 4506,
      "best": 4507,
      "cằn": 4508,
      "hủ": 4509,
      "kyo": 4510,
      "lặc": 4511,
      "mem": 4512,
      "mis": 4513,
      "múi": 4514,
      "oec": 4515,
      "rung": 4516,
      "tton": 4517,
      "uông": 4518,
      "vượn": 4519,
      "ève": 4520,
      "ngực": 4521,
      "chan": 4522,
      "chanh": 4523,
      "quấn": 4524,
      "gio": 4525,
      "nghiêu": 4526,
      "online": 4527,
      "cuộn": 4528,
      "are": 4529,
      "enzy": 4530,
      "ald": 4531,
      "bara": 4532,
      "hip": 4533,
      "mus": 4534,
      "trick": 4535,
      "program": 4536,
      "key": 4537,
      "juven": 4538,
      "renault": 4539,
      "shevik": 4540,
      "oecd": 4541,
      "360": 4542,
      "dối": 4543,
      "era": 4544,
      "glas": 4545,
      "kam": 4546,
      "lạy": 4547,
      "mùng": 4548,
      "niêm": 4549,
      "nứt": 4550,
      "opera": 4551,
      "sủng": 4552,
      "vọt": 4553,
      "đắm": 4554,
      "thệ": 4555,
      "quây": 4556,
      "ane": 4557,
      "colum": 4558,
      "viii": 4559,
      "viet": 4560,
      "some": 4561,
      "1527": 4562,
      "ghê": 4563,
      "attan": 4564,
      "picnic": 4565,
      "manhattan": 4566,
      "instein": 4567,
      "speci": 4568,
      "socie": 4569,
      "116": 4570,
      "hẻ": 4571,
      "pé": 4572,
      "pmid": 4573,
      "xà": 4574,
      "ắk": 4575,
      "trưa": 4576,
      "hoạ": 4577,
      "1929": 4578,
      "tas": 4579,
      "chuộc": 4580,
      "hiv": 4581,
      "high": 4582,
      "lie": 4583,
      "philo": 4584,
      "cưỡi": 4585,
      "chip": 4586,
      "111": 4587,
      "nhuộm": 4588,
      "pec": 4589,
      "now": 4590,
      "1937": 4591,
      "1888": 4592,
      "lẻo": 4593,
      "nhụy": 4594,
      "fon": 4595,
      "gỏi": 4596,
      "gươm": 4597,
      "nàn": 4598,
      "nốt": 4599,
      "pon": 4600,
      "rụng": 4601,
      "thề": 4602,
      "trượng": 4603,
      "phra": 4604,
      "thuở": 4605,
      "art": 4606,
      "aristo": 4607,
      "alg": 4608,
      "alem": 4609,
      "cour": 4610,
      "led": 4611,
      "1890": 4612,
      "shan": 4613,
      "shin": 4614,
      "seri": 4615,
      "benz": 4616,
      "bơm": 4617,
      "zimbab": 4618,
      "http": 4619,
      "juventus": 4620,
      "zimbabwe": 4621,
      "%;": 4622,
      "cội": 4623,
      "day": 4624,
      "dẫu": 4625,
      "ef": 4626,
      "einstein": 4627,
      "gnu": 4628,
      "hức": 4629,
      "kong": 4630,
      "kau": 4631,
      "lay": 4632,
      "mận": 4633,
      "ois": 4634,
      "vắc": 4635,
      "điềm": 4636,
      "thiêm": 4637,
      "chừ": 4638,
      "choé": 4639,
      "rat": 4640,
      "albu": 4641,
      "ement": 4642,
      "isa": 4643,
      "titu": 4644,
      "....": 4645,
      "nepal": 4646,
      "lica": 4647,
      "...)": 4648,
      "genève": 4649,
      "nico": 4650,
      "carlos": 4651,
      "pep": 4652,
      "noãn": 4653,
      "stalin": 4654,
      "vettel": 4655,
      "clay": 4656,
      "ukraine": 4657,
      "valen": 4658,
      "alexander": 4659,
      "htv7": 4660,
      "mịn": 4661,
      "albania": 4662,
      "axit": 4663,
      "liều": 4664,
      "mand": 4665,
      "nst": 4666,
      "oman": 4667,
      "rho": 4668,
      "síp": 4669,
      "tte": 4670,
      "đái": 4671,
      "”,": 4672,
      "chày": 4673,
      "tran": 4674,
      "tino": 4675,
      "colle": 4676,
      "duật": 4677,
      "ase": 4678,
      "chica": 4679,
      "ming": 4680,
      "nhuệ": 4681,
      "metro": 4682,
      "nica": 4683,
      "newton": 4684,
      "1933": 4685,
      "franç": 4686,
      "líu": 4687,
      "htv9": 4688,
      "kẽm": 4689,
      "friedrich": 4690,
      "plasma": 4691,
      "polynesia": 4692,
      "tunisia": 4693,
      "chicago": 4694,
      "ae": 4695,
      "lót": 4696,
      "nō": 4697,
      "yể": 4698,
      "”.": 4699,
      "chử": 4700,
      "phơi": 4701,
      "khao": 4702,
      "1913": 4703,
      "1923": 4704,
      "deu": 4705,
      "vacc": 4706,
      "meta": 4707,
      "tụt": 4708,
      "1901": 4709,
      "bón": 4710,
      "pollo": 4711,
      "octan": 4712,
      "uruguay": 4713,
      "wikipedia": 4714,
      "vaccine": 4715,
      "dẫm": 4716,
      "eth": 4717,
      "gấu": 4718,
      "ss": 4719,
      "tấp": 4720,
      "xua": 4721,
      "đần": 4722,
      "chùm": 4723,
      "phao": 4724,
      "phẫn": 4725,
      "khoác": 4726,
      "lah": 4727,
      "tiano": 4728,
      "thuyên": 4729,
      "125": 4730,
      "xii": 4731,
      "union": 4732,
      "santos": 4733,
      "south": 4734,
      "ace": 4735,
      "bhu": 4736,
      "cọc": 4737,
      "guy": 4738,
      "hs": 4739,
      "ide": 4740,
      "pus": 4741,
      "rw": 4742,
      "sche": 4743,
      "ngói": 4744,
      "nhọn": 4745,
      "trán": 4746,
      "khép": 4747,
      "gianh": 4748,
      "giọt": 4749,
      "racing": 4750,
      "elon": 4751,
      "1895": 4752,
      "thoi": 4753,
      "1592": 4754,
      "sat": 4755,
      "rug": 4756,
      "moor": 4757,
      "media": 4758,
      "berna": 4759,
      "1905": 4760,
      "black": 4761,
      "érie": 4762,
      "australia": 4763,
      "algérie": 4764,
      "apollo": 4765,
      "bau": 4766,
      "clas": 4767,
      "fal": 4768,
      "fur": 4769,
      "gel": 4770,
      "hr": 4771,
      "mü": 4772,
      "miếng": 4773,
      "rạc": 4774,
      "sốc": 4775,
      "ngao": 4776,
      "1910": 4777,
      "una": 4778,
      "enki": 4779,
      "mãng": 4780,
      "1860": 4781,
      "mur": 4782,
      "1258": 4783,
      "1792": 4784,
      "michel": 4785,
      "usalem": 4786,
      "manuel": 4787,
      "ping": 4788,
      "ghé": 4789,
      "cari": 4790,
      "donia": 4791,
      "pandura": 4792,
      "1786": 4793,
      "jerusalem": 4794,
      "openai": 4795,
      "american": 4796,
      "pierre": 4797,
      "deuts": 4798,
      "panduranga": 4799,
      "ah": 4800,
      "bis": 4801,
      "cắp": 4802,
      "dồn": 4803,
      "dre": 4804,
      "dúa": 4805,
      "gpu": 4806,
      "mam": 4807,
      "mài": 4808,
      "rh": 4809,
      "rậm": 4810,
      "sas": 4811,
      "uz": 4812,
      "vard": 4813,
      "đẫm": 4814,
      "ngần": 4815,
      "thãi": 4816,
      "trop": 4817,
      "khiếu": 4818,
      "quặng": 4819,
      "alpha": 4820,
      "eston": 4821,
      ")...": 4822,
      "istor": 4823,
      "suma": 4824,
      "1800": 4825,
      "ric": 4826,
      "1777": 4827,
      "mont": 4828,
      "1889": 4829,
      "transistor": 4830,
      "masters": 4831,
      "julius": 4832,
      "kyoto": 4833,
      "01": 4834,
      "02": 4835,
      "04": 4836,
      "450": 4837,
      "bã": 4838,
      "gn": 4839,
      "hân": 4840,
      "liêng": 4841,
      "náo": 4842,
      "rắc": 4843,
      "twe": 4844,
      "nhộn": 4845,
      "thầm": 4846,
      "chà": 4847,
      "chao": 4848,
      "phạn": 4849,
      "gic": 4850,
      "hoi": 4851,
      "amster": 4852,
      "nhàn": 4853,
      "1925": 4854,
      "socra": 4855,
      "base": 4856,
      "bados": 4857,
      "suri": 4858,
      "taylor": 4859,
      "dae": 4860,
      "hydra": 4861,
      "modu": 4862,
      "maroc": 4863,
      "cial": 4864,
      "barbados": 4865,
      "kol": 4866,
      "panama": 4867,
      "philip": 4868,
      "bolshevik": 4869,
      "francisco": 4870,
      "philoso": 4871,
      "album": 4872,
      "amsterdam": 4873,
      "dỗ": 4874,
      "lùng": 4875,
      "nới": 4876,
      "nản": 4877,
      "scho": 4878,
      "sãi": 4879,
      "tl": 4880,
      "uri": 4881,
      "wto": 4882,
      "zz": 4883,
      "zam": 4884,
      "zen": 4885,
      "phác": 4886,
      "khốn": 4887,
      "toa": 4888,
      "alonso": 4889,
      "villa": 4890,
      "1870": 4891,
      "thoả": 4892,
      "1600": 4893,
      "nghiễm": 4894,
      "pad": 4895,
      "guin": 4896,
      "gael": 4897,
      "uron": 4898,
      "pper": 4899,
      "europe": 4900,
      "wall": 4901,
      "zuela": 4902,
      "chatgpt": 4903,
      "indravarman": 4904,
      "mobile": 4905,
      "venezuela": 4906,
      "enkidu": 4907,
      "api": 4908,
      "côi": 4909,
      "gne": 4910,
      "lở": 4911,
      "nện": 4912,
      "rạn": 4913,
      "rỗng": 4914,
      "tặc": 4915,
      "vách": 4916,
      "wana": 4917,
      "xáo": 4918,
      "xám": 4919,
      "ẹo": 4920,
      "chal": 4921,
      "giã": 4922,
      "gióng": 4923,
      "hoo": 4924,
      "hoả": 4925,
      "unda": 4926,
      "asia": 4927,
      "1775": 4928,
      "power": 4929,
      "tric": 4930,
      "nile": 4931,
      "fica": 4932,
      "tain": 4933,
      "malia": 4934,
      "zakh": 4935,
      "truốt": 4936,
      "great": 4937,
      "romania": 4938,
      "caribe": 4939,
      "suriname": 4940,
      "06": 4941,
      "118": 4942,
      "băn": 4943,
      "bưởi": 4944,
      "lận": 4945,
      "lli": 4946,
      "lướt": 4947,
      "nel": 4948,
      "ròng": 4949,
      "sỏi": 4950,
      "stre": 4951,
      "vòm": 4952,
      "ọp": 4953,
      "ngắt": 4954,
      "nhặt": 4955,
      "thâu": 4956,
      "thưa": 4957,
      "chê": 4958,
      "chằng": 4959,
      "chảo": 4960,
      "chăng": 4961,
      "khoăn": 4962,
      "ele": 4963,
      "iss": 4964,
      "lewis": 4965,
      "nex": 4966,
      "lanka": 4967,
      "sius": 4968,
      "guốc": 4969,
      "mars": 4970,
      "marke": 4971,
      "atp": 4972,
      "johan": 4973,
      "phara": 4974,
      "1931": 4975,
      "bell": 4976,
      "europa": 4977,
      "1787": 4978,
      "kant": 4979,
      "mauri": 4980,
      "rwanda": 4981,
      "marketing": 4982,
      "03": 4983,
      "agi": 4984,
      "bấp": 4985,
      "evolution": 4986,
      "gm": 4987,
      "gali": 4988,
      "hl": 4989,
      "hiên": 4990,
      "hôi": 4991,
      "ius": 4992,
      "mè": 4993,
      "nar": 4994,
      "out": 4995,
      "sộ": 4996,
      "try": 4997,
      "trơn": 4998,
      "giặt": 4999,
      "tiếm": 5000,
      "tou": 5001,
      "mace": 5002,
      "ason": 5003,
      "thoáng": 5004,
      "guru": 5005,
      "beth": 5006,
      "beta": 5007,
      "field": 5008,
      "lines": 5009,
      "donald": 5010,
      "santa": 5011,
      "hein": 5012,
      "anderen": 5013,
      "meso": 5014,
      "cricket": 5015,
      "giêsu": 5016,
      "general": 5017,
      "vlaanderen": 5018,
      "society": 5019,
      "series": 5020,
      "rugby": 5021,
      "05": 5022,
      "?\".": 5023,
      "bp": 5024,
      "biếm": 5025,
      "dun": 5026,
      "diệp": 5027,
      "fram": 5028,
      "gõ": 5029,
      "hal": 5030,
      "kìm": 5031,
      "oh": 5032,
      "sảm": 5033,
      "sse": 5034,
      "súy": 5035,
      "tỵ": 5036,
      "whi": 5037,
      "nghênh": 5038,
      "bat": 5039,
      "nguội": 5040,
      "tier": 5041,
      "pop": 5042,
      "url": 5043,
      "mail": 5044,
      "uku": 5045,
      "1932": 5046,
      "gasy": 5047,
      "harvard": 5048,
      "eliza": 5049,
      "phàm": 5050,
      "malagasy": 5051,
      "hẻm": 5052,
      "pérez": 5053,
      "uzbe": 5054,
      "estonia": 5055,
      "09": 5056,
      "fris": 5057,
      "hỷ": 5058,
      "ios": 5059,
      "ole": 5060,
      "ose": 5061,
      "rảnh": 5062,
      "rìa": 5063,
      "vất": 5064,
      "ngả": 5065,
      "ngạo": 5066,
      "thùng": 5067,
      "chội": 5068,
      "dom": 5069,
      "1927": 5070,
      "hệt": 5071,
      "dies": 5072,
      "aly": 5073,
      "coo": 5074,
      "hil": 5075,
      "podo": 5076,
      "posi": 5077,
      "lywood": 5078,
      "kilo": 5079,
      "gogh": 5080,
      "pie": 5081,
      "ghen": 5082,
      "gate": 5083,
      "ller": 5084,
      "calci": 5085,
      "cleo": 5086,
      "corpo": 5087,
      "ners": 5088,
      "texas": 5089,
      "www": 5090,
      "macedonia": 5091,
      "bực": 5092,
      "dĩnh": 5093,
      "edi": 5094,
      "hăng": 5095,
      "ola": 5096,
      "rét": 5097,
      "tăm": 5098,
      "up": 5099,
      "vò": 5100,
      "đạm": 5101,
      "ộp": 5102,
      "phàn": 5103,
      "quạt": 5104,
      "giò": 5105,
      "radio": 5106,
      "alfre": 5107,
      "roy": 5108,
      "lac": 5109,
      "tius": 5110,
      "tical": 5111,
      "mura": 5112,
      "page": 5113,
      "sear": 5114,
      "seine": 5115,
      "link": 5116,
      "gambia": 5117,
      "penn": 5118,
      "football": 5119,
      "valencia": 5120,
      "socrates": 5121,
      "350": 5122,
      "968": 5123,
      "ap": 5124,
      "bìa": 5125,
      "hong": 5126,
      "hắn": 5127,
      "iberia": 5128,
      "jung": 5129,
      "mễ": 5130,
      "och": 5131,
      "sc": 5132,
      "tát": 5133,
      "phô": 5134,
      "khắt": 5135,
      "undi": 5136,
      "entrop": 5137,
      "nón": 5138,
      "bac": 5139,
      "lênin": 5140,
      "bury": 5141,
      "1850": 5142,
      "1010": 5143,
      "tera": 5144,
      "1644": 5145,
      "ruby": 5146,
      "cker": 5147,
      "pura": 5148,
      "shar": 5149,
      "kei": 5150,
      "water": 5151,
      "trump": 5152,
      "1903": 5153,
      "1904": 5154,
      "cristiano": 5155,
      "deutsche": 5156,
      "entropy": 5157,
      "gộp": 5158,
      "iana": 5159,
      "rỉ": 5160,
      "rỗi": 5161,
      "rốt": 5162,
      "súp": 5163,
      "tua": 5164,
      "yang": 5165,
      "đẽ": 5166,
      "đúp": 5167,
      "thiêu": 5168,
      "thuột": 5169,
      "1924": 5170,
      "khoách": 5171,
      "ngoạn": 5172,
      "alu": 5173,
      "villar": 5174,
      "elli": 5175,
      "solo": 5176,
      "lab": 5177,
      "105": 5178,
      "1285": 5179,
      "miami": 5180,
      "moto": 5181,
      "theid": 5182,
      "carbo": 5183,
      "carib": 5184,
      "bec": 5185,
      "kaz": 5186,
      "logical": 5187,
      "samsung": 5188,
      "airlines": 5189,
      "apartheid": 5190,
      "frisia": 5191,
      "//": 5192,
      "07": 5193,
      "abo": 5194,
      "dép": 5195,
      "fes": 5196,
      "jr": 5197,
      "kal": 5198,
      "tỳ": 5199,
      "xèo": 5200,
      "{{": 5201,
      "}:": 5202,
      "}}:": 5203,
      "âl": 5204,
      "õm": 5205,
      "thêu": 5206,
      "thớt": 5207,
      "trát": 5208,
      "phiện": 5209,
      "anton": 5210,
      "nghiền": 5211,
      "amino": 5212,
      "rakhi": 5213,
      "cul": 5214,
      "albert": 5215,
      "somalia": 5216,
      "huyệt": 5217,
      "buông": 5218,
      "caf": 5219,
      "ghề": 5220,
      "bill": 5221,
      "kazakh": 5222,
      "get": 5223,
      "clé": 5224,
      "1902": 5225,
      "walmart": 5226,
      "mascher": 5227,
      "chelsea": 5228,
      "vladi": 5229,
      "sumatra": 5230,
      "elizabeth": 5231,
      "uzbekistan": 5232,
      "rakhine": 5233,
      "mascherano": 5234,
      "230": 5235,
      "dại": 5236,
      "hước": 5237,
      "hót": 5238,
      "jin": 5239,
      "jus": 5240,
      "nang": 5241,
      "nộn": 5242,
      "ov": 5243,
      "rin": 5244,
      "sr": 5245,
      "script": 5246,
      "vtv": 5247,
      "ça": 5248,
      "đao": 5249,
      "ớn": 5250,
      "thầu": 5251,
      "phất": 5252,
      "khấn": 5253,
      "1926": 5254,
      "eman": 5255,
      "tửu": 5256,
      "hill": 5257,
      "1740": 5258,
      "team": 5259,
      "quýnh": 5260,
      "caro": 5261,
      "võng": 5262,
      "resear": 5263,
      "scott": 5264,
      "1886": 5265,
      "1908": 5266,
      "fernan": 5267,
      "juan": 5268,
      "green": 5269,
      "feet": 5270,
      "lympho": 5271,
      "graphi": 5272,
      "norman": 5273,
      "stephen": 5274,
      "institu": 5275,
      "paraguay": 5276,
      "lski": 5277,
      "hsbc": 5278,
      "kolkata": 5279,
      "podolski": 5280,
      "corporation": 5281,
      "research": 5282,
      "fernando": 5283,
      "bướ": 5284,
      "bục": 5285,
      "dạn": 5286,
      "hall": 5287,
      "osa": 5288,
      "sò": 5289,
      "sáo": 5290,
      "spin": 5291,
      "sql": 5292,
      "tch": 5293,
      "ud": 5294,
      "ếm": 5295,
      "nhe": 5296,
      "kham": 5297,
      "ant": 5298,
      "ais": 5299,
      "ange": 5300,
      "indi": 5301,
      "1928": 5302,
      "tation": 5303,
      "cook": 5304,
      "chur": 5305,
      "islam": 5306,
      "org": 5307,
      "hur": 5308,
      "1820": 5309,
      "1880": 5310,
      "1831": 5311,
      "lion": 5312,
      "cám": 5313,
      "siberia": 5314,
      "1427": 5315,
      "chịt": 5316,
      "celo": 5317,
      "gol": 5318,
      "thúy": 5319,
      "fir": 5320,
      "kara": 5321,
      "network": 5322,
      "stand": 5323,
      "jac": 5324,
      "jack": 5325,
      "907": 5326,
      "1934": 5327,
      "1782": 5328,
      "rama": 5329,
      "photon": 5330,
      "text": 5331,
      "habilis": 5332,
      "techno": 5333,
      "vietnam": 5334,
      "aristotle": 5335,
      "villarreal": 5336,
      "carbohydra": 5337,
      "caribbe": 5338,
      "\":": 5339,
      "365": 5340,
      "938": 5341,
      "abi": 5342,
      "apec": 5343,
      "c1": 5344,
      "ceo": 5345,
      "hau": 5346,
      "if": 5347,
      "jen": 5348,
      "mò": 5349,
      "nằng": 5350,
      "rạng": 5351,
      "sảng": 5352,
      "sắn": 5353,
      "đọng": 5354,
      "、、": 5355,
      "ngọa": 5356,
      "thy": 5357,
      "chướng": 5358,
      "cháo": 5359,
      "chén": 5360,
      "phanh": 5361,
      "giật": 5362,
      "home": 5363,
      "house": 5364,
      "2030": 5365,
      "eric": 5366,
      "socia": 5367,
      "ise": 5368,
      "huỷ": 5369,
      "1898": 5370,
      "liban": 5371,
      "rica": 5372,
      "mul": 5373,
      "ass": 5374,
      "associa": 5375,
      "1776": 5376,
      "boy": 5377,
      "sara": 5378,
      "kir": 5379,
      "seau": 5380,
      "noi": 5381,
      "nova": 5382,
      "lands": 5383,
      "monte": 5384,
      "with": 5385,
      "oscar": 5386,
      "franco": 5387,
      "tesla": 5388,
      "baltic": 5389,
      "burgh": 5390,
      "corn": 5391,
      "grandclé": 5392,
      "janei": 5393,
      "diego": 5394,
      "blue": 5395,
      "vichy": 5396,
      "view": 5397,
      "grandcléme": 5398,
      "janeiro": 5399,
      "08": 5400,
      "114": 5401,
      "3d": 5402,
      "căm": 5403,
      "gạt": 5404,
      "hanh": 5405,
      "hun": 5406,
      "hem": 5407,
      "hít": 5408,
      "hóc": 5409,
      "kush": 5410,
      "mỵ": 5411,
      "nq": 5412,
      "pto": 5413,
      "rò": 5414,
      "sá": 5415,
      "vờ": 5416,
      "xy": 5417,
      "thia": 5418,
      "năn": 5419,
      "tit": 5420,
      "1840": 5421,
      "107": 5422,
      "music": 5423,
      "sico": 5424,
      "bogo": 5425,
      "1442": 5426,
      "tana": 5427,
      "pablo": 5428,
      "gom": 5429,
      "sebas": 5430,
      "model": 5431,
      "had": 5432,
      "card": 5433,
      "gawa": 5434,
      "forma": 5435,
      "240": 5436,
      "santia": 5437,
      "1887": 5438,
      "zation": 5439,
      "italia": 5440,
      "hari": 5441,
      "massa": 5442,
      "rosberg": 5443,
      "salad": 5444,
      "engine": 5445,
      "hollywood": 5446,
      "columbia": 5447,
      "santiago": 5448,
      "!\"": 5449,
      "\"\"": 5450,
      "]\"": 5451,
      "biền": 5452,
      "econ": 5453,
      "gầm": 5454,
      "hột": 5455,
      "nn": 5456,
      "rẫy": 5457,
      "sanh": 5458,
      "té": 5459,
      "tánh": 5460,
      "ña": 5461,
      "đéc": 5462,
      "ụn": 5463,
      "nhuy": 5464,
      "thpt": 5465,
      "chích": 5466,
      "chôm": 5467,
      "quít": 5468,
      "2050": 5469,
      "diễu": 5470,
      "archi": 5471,
      "cou": 5472,
      "buồm": 5473,
      "1899": 5474,
      "1871": 5475,
      "neuron": 5476,
      "sir": 5477,
      "sack": 5478,
      "yoga": 5479,
      "bil": 5480,
      "nui": 5481,
      "kav": 5482,
      "bềnh": 5483,
      "syl": 5484,
      "mall": 5485,
      "server": 5486,
      "trea": 5487,
      "lôgic": 5488,
      "plato": 5489,
      "global": 5490,
      "species": 5491,
      "tweet": 5492,
      "pharaon": 5493,
      "nhuyễn": 5494,
      "dt": 5495,
      "fox": 5496,
      "gb": 5497,
      "gập": 5498,
      "gặt": 5499,
      "gừng": 5500,
      "hc": 5501,
      "hách": 5502,
      "miện": 5503,
      "rìu": 5504,
      "xinh": 5505,
      "xộn": 5506,
      "đấm": 5507,
      "toại": 5508,
      "1921": 5509,
      "dium": 5510,
      "theory": 5511,
      "sol": 5512,
      "dus": 5513,
      "lity": 5514,
      "ribo": 5515,
      "1774": 5516,
      "1662": 5517,
      "bayes": 5518,
      "pid": 5519,
      "fic": 5520,
      "1009": 5521,
      "clb": 5522,
      "béu": 5523,
      "1804": 5524,
      "turbo": 5525,
      "helm": 5526,
      "publis": 5527,
      "bernabéu": 5528,
      "kavkaz": 5529,
      "750": 5530,
      "980": 5531,
      "bô": 5532,
      "bử": 5533,
      "bụt": 5534,
      "dỡ": 5535,
      "eva": 5536,
      "fun": 5537,
      "ica": 5538,
      "jon": 5539,
      "kra": 5540,
      "lăn": 5541,
      "lói": 5542,
      "mb": 5543,
      "run": 5544,
      "tẻ": 5545,
      "who": 5546,
      "xạc": 5547,
      "yan": 5548,
      "ngào": 5549,
      "ngỗi": 5550,
      "nhản": 5551,
      "nhọc": 5552,
      "nhốt": 5553,
      "chiền": 5554,
      "trĩ": 5555,
      "phách": 5556,
      "ain": 5557,
      "thur": 5558,
      "aux": 5559,
      "luther": 5560,
      "roi": 5561,
      "budd": 5562,
      "button": 5563,
      "1832": 5564,
      "ashi": 5565,
      "1793": 5566,
      "type": 5567,
      "deep": 5568,
      "137": 5569,
      "sabah": 5570,
      "cep": 5571,
      "mora": 5572,
      "đuối": 5573,
      "edin": 5574,
      "1935": 5575,
      "state": 5576,
      "bóp": 5577,
      "981": 5578,
      "ibn": 5579,
      "books": 5580,
      "kenne": 5581,
      "henri": 5582,
      "melan": 5583,
      "sports": 5584,
      "search": 5585,
      "ghềnh": 5586,
      "bửu": 5587,
      "buy": 5588,
      "bali": 5589,
      "js": 5590,
      "kali": 5591,
      "kana": 5592,
      "lb": 5593,
      "lt": 5594,
      "lùn": 5595,
      "mút": 5596,
      "o2": 5597,
      "oi": 5598,
      "oli": 5599,
      "rán": 5600,
      "sti": 5601,
      "stru": 5602,
      "vâng": 5603,
      "yam": 5604,
      "thặng": 5605,
      "chắt": 5606,
      "chèn": 5607,
      "rapa": 5608,
      "dol": 5609,
      "tori": 5610,
      "let": 5611,
      "math": 5612,
      "life": 5613,
      "reason": 5614,
      "1791": 5615,
      "sain": 5616,
      "1500": 5617,
      "moai": 5618,
      "vador": 5619,
      "not": 5620,
      "proton": 5621,
      "atlé": 5622,
      "josé": 5623,
      "bonapar": 5624,
      "clau": 5625,
      "1801": 5626,
      "salvador": 5627,
      "msn": 5628,
      "kyr": 5629,
      "romeo": 5630,
      "gaulle": 5631,
      "solomon": 5632,
      "atlético": 5633,
      "bonaparte": 5634,
      "bốt": 5635,
      "bổn": 5636,
      "cồng": 5637,
      "ee": 5638,
      "mán": 5639,
      "nus": 5640,
      "sảnh": 5641,
      "stra": 5642,
      "won": 5643,
      "ye": 5644,
      "ngó": 5645,
      "chin": 5646,
      "tom": 5647,
      "1915": 5648,
      "erra": 5649,
      "khoẻ": 5650,
      "table": 5651,
      "thủng": 5652,
      "vụn": 5653,
      "roose": 5654,
      "lation": 5655,
      "human": 5656,
      "1815": 5657,
      "102": 5658,
      "106": 5659,
      "109": 5660,
      "river": 5661,
      "1533": 5662,
      "markov": 5663,
      "nucleo": 5664,
      "pur": 5665,
      "jane": 5666,
      "velt": 5667,
      "françois": 5668,
      "standard": 5669,
      "bogotá": 5670,
      "ribosome": 5671,
      "roosevelt": 5672,
      "550": 5673,
      "dj": 5674,
      "eus": 5675,
      "ici": 5676,
      "kẹo": 5677,
      "mạ": 5678,
      "rị": 5679,
      "rủ": 5680,
      "rêu": 5681,
      "sòng": 5682,
      "stro": 5683,
      "tta": 5684,
      "wim": 5685,
      "yi": 5686,
      "ür": 5687,
      "điếm": 5688,
      "ũa": 5689,
      "nger": 5690,
      "phos": 5691,
      "giầy": 5692,
      "củi": 5693,
      "iềng": 5694,
      "thát": 5695,
      "domain": 5696,
      "end": 5697,
      "khuông": 5698,
      "laser": 5699,
      "lei": 5700,
      "andy": 5701,
      "1778": 5702,
      "boe": 5703,
      "1471": 5704,
      "1368": 5705,
      "chad": 5706,
      "mary": 5707,
      "maria": 5708,
      "cairo": 5709,
      "peir": 5710,
      "prom": 5711,
      "barça": 5712,
      "perl": 5713,
      "xoa": 5714,
      "ttle": 5715,
      "minoan": 5716,
      "maori": 5717,
      "north": 5718,
      "yuan": 5719,
      "crim": 5720,
      "scien": 5721,
      "srivijaya": 5722,
      "slova": 5723,
      "adobe": 5724,
      "rịa": 5725,
      "peirce": 5726,
      "abu": 5727,
      "bôi": 5728,
      "cca": 5729,
      "gậy": 5730,
      "hd": 5731,
      "kẹp": 5732,
      "lít": 5733,
      "np": 5734,
      "nể": 5735,
      "ora": 5736,
      "plu": 5737,
      "rí": 5738,
      "rộ": 5739,
      "rợ": 5740,
      "swi": 5741,
      "tō": 5742,
      "tằm": 5743,
      "vòi": 5744,
      "wri": 5745,
      "đả": 5746,
      "chốn": 5747,
      "tral": 5748,
      "trũng": 5749,
      "lois": 5750,
      "alas": 5751,
      "tures": 5752,
      "esar": 5753,
      "coun": 5754,
      "roland": 5755,
      "late": 5756,
      "made": 5757,
      "macro": 5758,
      "1830": 5759,
      "1833": 5760,
      "1848": 5761,
      "bots": 5762,
      "1370": 5763,
      "pot": 5764,
      "...,": 5765,
      "kie": 5766,
      "marcelo": 5767,
      "test": 5768,
      "enstein": 5769,
      "brit": 5770,
      "catalan": 5771,
      "ledge": 5772,
      "dream": 5773,
      "lionel": 5774,
      "bọt": 5775,
      "bẫy": 5776,
      "cắn": 5777,
      "eas": 5778,
      "feli": 5779,
      "hễ": 5780,
      "hổi": 5781,
      "hman": 5782,
      "iel": 5783,
      "kro": 5784,
      "liềm": 5785,
      "muni": 5786,
      "spi": 5787,
      "tò": 5788,
      "vứt": 5789,
      "wy": 5790,
      "xâu": 5791,
      "ère": 5792,
      "thắc": 5793,
      "chậu": 5794,
      "triện": 5795,
      "trói": 5796,
      "antan": 5797,
      "cóc": 5798,
      "angkor": 5799,
      "thán": 5800,
      "cur": 5801,
      "lop": 5802,
      "town": 5803,
      "arthur": 5804,
      "ving": 5805,
      "duẩn": 5806,
      "leon": 5807,
      "1897": 5808,
      "1873": 5809,
      "cap": 5810,
      "sac": 5811,
      "gov": 5812,
      "vati": 5813,
      "berkel": 5814,
      "nitơ": 5815,
      "carl": 5816,
      "project": 5817,
      "221": 5818,
      "dona": 5819,
      "280": 5820,
      "hee": 5821,
      "1783": 5822,
      "samoa": 5823,
      "brand": 5824,
      "rough": 5825,
      "bsd": 5826,
      "bénin": 5827,
      "8970": 5828,
      "maradona": 5829,
      "america": 5830,
      "stone": 5831,
      "stress": 5832,
      "enzyme": 5833,
      "guyana": 5834,
      "european": 5835,
      "kazakhstan": 5836,
      "vladimir": 5837,
      "berkeley": 5838,
      "abra": 5839,
      "bần": 5840,
      "hé": 5841,
      "jing": 5842,
      "lm": 5843,
      "lén": 5844,
      "lựu": 5845,
      "nụ": 5846,
      "nêm": 5847,
      "ome": 5848,
      "pun": 5849,
      "sọc": 5850,
      "sell": 5851,
      "viền": 5852,
      "wang": 5853,
      "xel": 5854,
      "đản": 5855,
      "trini": 5856,
      "quệ": 5857,
      "giàn": 5858,
      "aids": 5859,
      "ragua": 5860,
      "angola": 5861,
      "nami": 5862,
      "informa": 5863,
      "toku": 5864,
      "ese": 5865,
      "cole": 5866,
      "ime": 5867,
      "sos": 5868,
      "latv": 5869,
      "128": 5870,
      "ash": 5871,
      "boli": 5872,
      "ters": 5873,
      "nick": 5874,
      "carlo": 5875,
      "nuối": 5876,
      "noam": 5877,
      "270": 5878,
      "syn": 5879,
      "chợt": 5880,
      "vania": 5881,
      "ptis": 5882,
      "wilhelm": 5883,
      "éné": 5884,
      "plc": 5885,
      "vector": 5886,
      "zier": 5887,
      "physi": 5888,
      "andrew": 5889,
      "victoria": 5890,
      "constantino": 5891,
      "frazier": 5892,
      "prince": 5893,
      "peptide": 5894,
      "nicaragua": 5895,
      "frame": 5896,
      "institute": 5897,
      "edinburgh": 5898,
      "latvia": 5899,
      "constantinopolis": 5900,
      "))": 5901,
      "210": 5902,
      "bạ": 5903,
      "cộ": 5904,
      "cru": 5905,
      "dán": 5906,
      "fair": 5907,
      "jes": 5908,
      "kes": 5909,
      "lị": 5910,
      "nin": 5911,
      "nồi": 5912,
      "ous": 5913,
      "old": 5914,
      "pang": 5915,
      "rand": 5916,
      "ura": 5917,
      "vác": 5918,
      "wol": 5919,
      "xml": 5920,
      "yama": 5921,
      "õng": 5922,
      "đắk": 5923,
      "phỉ": 5924,
      "giục": 5925,
      "thuấn": 5926,
      "into": 5927,
      "low": 5928,
      "loãng": 5929,
      "domini": 5930,
      "alfa": 5931,
      "tini": 5932,
      "vision": 5933,
      "ory": 5934,
      "levan": 5935,
      "letic": 5936,
      "108": 5937,
      "1054": 5938,
      "179": 5939,
      "1460": 5940,
      "deve": 5941,
      "bet": 5942,
      "sham": 5943,
      "malaya": 5944,
      "1907": 5945,
      "1909": 5946,
      "iceland": 5947,
      "pala": 5948,
      "gyz": 5949,
      "georges": 5950,
      "kenya": 5951,
      "thern": 5952,
      "daim": 5953,
      "athletic": 5954,
      "sultan": 5955,
      "motors": 5956,
      "programming": 5957,
      "osaka": 5958,
      "jacques": 5959,
      "caribbean": 5960,
      "kyrgyz": 5961,
      "slovakia": 5962,
      "3c": 5963,
      "ach": 5964,
      "bọ": 5965,
      "clá": 5966,
      "ctor": 5967,
      "ech": 5968,
      "fdi": 5969,
      "hở": 5970,
      "hèn": 5971,
      "jar": 5972,
      "kcn": 5973,
      "lốt": 5974,
      "miệt": 5975,
      "nôi": 5976,
      "phai": 5977,
      "phia": 5978,
      "ance": 5979,
      "đãng": 5980,
      "toba": 5981,
      "206": 5982,
      "român": 5983,
      "sushi": 5984,
      "husse": 5985,
      "1847": 5986,
      "1867": 5987,
      "riu": 5988,
      "asa": 5989,
      "1765": 5990,
      "berners": 5991,
      "big": 5992,
      "nubia": 5993,
      "putin": 5994,
      "mono": 5995,
      "chev": 5996,
      "1906": 5997,
      "excel": 5998,
      "deri": 5999,
      "cyclo": 6000,
      "founda": 6001,
      "stanford": 6002,
      "ario": 6003,
      "sunni": 6004,
      "magna": 6005,
      "adolf": 6006,
      "ricci": 6007,
      "royal": 6008,
      "clásico": 6009,
      "românia": 6010,
      "hussein": 6011,
      "214": 6012,
      "5000": 6013,
      "650": 6014,
      "dé": 6015,
      "eco": 6016,
      "hấu": 6017,
      "kry": 6018,
      "kkon": 6019,
      "lồi": 6020,
      "nm": 6021,
      "nôn": 6022,
      "nắp": 6023,
      "pong": 6024,
      "rhein": 6025,
      "vét": 6026,
      "wel": 6027,
      "xé": 6028,
      "xốp": 6029,
      "đẩu": 6030,
      "đớn": 6031,
      "trino": 6032,
      "pher": 6033,
      "quai": 6034,
      "analy": 6035,
      "hop": 6036,
      "holo": 6037,
      "homin": 6038,
      "208": 6039,
      "digi": 6040,
      "diễm": 6041,
      "alta": 6042,
      "tuế": 6043,
      "tural": 6044,
      "esta": 6045,
      "costa": 6046,
      "imf": 6047,
      "1841": 6048,
      "andré": 6049,
      "live": 6050,
      "sierra": 6051,
      "calo": 6052,
      "box": 6053,
      "cốm": 6054,
      "kilô": 6055,
      "marsh": 6056,
      "nie": 6057,
      "thera": 6058,
      "cartha": 6059,
      "bei": 6060,
      "param": 6061,
      "tụy": 6062,
      "raikkon": 6063,
      "kart": 6064,
      "eritrea": 6065,
      "bledon": 6066,
      "ffel": 6067,
      "neutrino": 6068,
      "bosnia": 6069,
      "object": 6070,
      "public": 6071,
      "biology": 6072,
      "moore": 6073,
      "wimbledon": 6074,
      "bolivia": 6075,
      "daimler": 6076,
      "raikkonen": 6077,
      ":\"": 6078,
      "bẻ": 6079,
      "cẩu": 6080,
      "ever": 6081,
      "kệ": 6082,
      "mw": 6083,
      "nị": 6084,
      "pta": 6085,
      "rư": 6086,
      "tali": 6087,
      "vấp": 6088,
      "vẹt": 6089,
      "yemen": 6090,
      "đũa": 6091,
      "nhồi": 6092,
      "thảy": 6093,
      "chớp": 6094,
      "trá": 6095,
      "giằng": 6096,
      "ras": 6097,
      "diction": 6098,
      "soi": 6099,
      "isp": 6100,
      "dur": 6101,
      "mah": 6102,
      "1835": 6103,
      "1226": 6104,
      "rei": 6105,
      "mil": 6106,
      "tanzan": 6107,
      "potam": 6108,
      "gence": 6109,
      "gui": 6110,
      "guit": 6111,
      "wei": 6112,
      "bib": 6113,
      "nom": 6114,
      "256": 6115,
      "barca": 6116,
      "sym": 6117,
      "garros": 6118,
      "shire": 6119,
      "tele": 6120,
      "phoen": 6121,
      "kyō": 6122,
      "steven": 6123,
      "origi": 6124,
      "spacex": 6125,
      "bhutan": 6126,
      "murray": 6127,
      "module": 6128,
      "mesopotam": 6129,
      "bướm": 6130,
      "botswana": 6131,
      "british": 6132,
      "nịnh": 6133,
      "tanzania": 6134,
      "guitar": 6135,
      "mesopotamia": 6136,
      "4000": 6137,
      "bặc": 6138,
      "bẩy": 6139,
      "cữu": 6140,
      "ctive": 6141,
      "dận": 6142,
      "dney": 6143,
      "ffer": 6144,
      "glu": 6145,
      "gáp": 6146,
      "kén": 6147,
      "lẩu": 6148,
      "lượn": 6149,
      "mít": 6150,
      "né": 6151,
      "nard": 6152,
      "pton": 6153,
      "ráo": 6154,
      "tì": 6155,
      "tong": 6156,
      "tét": 6157,
      "uốn": 6158,
      "vnex": 6159,
      "xì": 6160,
      "đò": 6161,
      "điếu": 6162,
      "「」": 6163,
      "chót": 6164,
      "chòm": 6165,
      "gièm": 6166,
      "192": 6167,
      "uar": 6168,
      "under": 6169,
      "ente": 6170,
      "alf": 6171,
      "luis": 6172,
      "espa": 6173,
      "isser": 6174,
      "1834": 6175,
      "1868": 6176,
      "1872": 6177,
      "1874": 6178,
      "muội": 6179,
      "1516": 6180,
      "nations": 6181,
      "1627": 6182,
      "dec": 6183,
      "sad": 6184,
      "...\".": 6185,
      "habs": 6186,
      "pithe": 6187,
      "gaz": 6188,
      "sten": 6189,
      "joe": 6190,
      "koku": 6191,
      "wagen": 6192,
      "logis": 6193,
      "mina": 6194,
      "adam": 6195,
      "nộm": 6196,
      "toyoda": 6197,
      "daniel": 6198,
      "lợp": 6199,
      "cs1": 6200,
      "sime": 6201,
      "systems": 6202,
      "pleisto": 6203,
      "ubnd": 6204,
      "watson": 6205,
      "slavơ": 6206,
      "qh15": 6207,
      "alfred": 6208,
      "first": 6209,
      "technology": 6210,
      "boeing": 6211,
      "vnexpress": 6212,
      "habsburg": 6213,
      "pleistocen": 6214,
      "370": 6215,
      "950": 6216,
      "bở": 6217,
      "bẩn": 6218,
      "edo": 6219,
      "gö": 6220,
      "gun": 6221,
      "hịch": 6222,
      "jun": 6223,
      "keo": 6224,
      "lima": 6225,
      "mắng": 6226,
      "ness": 6227,
      "râu": 6228,
      "w3c": 6229,
      "year": 6230,
      "đè": 6231,
      "ẽn": 6232,
      "thiến": 6233,
      "thốt": 6234,
      "chài": 6235,
      "quẻ": 6236,
      "nghẽn": 6237,
      "raku": 6238,
      "uae": 6239,
      "ngoái": 6240,
      "baba": 6241,
      "duction": 6242,
      "orbi": 6243,
      "1858": 6244,
      "1853": 6245,
      "1225": 6246,
      "1278": 6247,
      "1288": 6248,
      "175": 6249,
      "1790": 6250,
      "thic": 6251,
      "nature": 6252,
      "def": 6253,
      "...).": 6254,
      "mou": 6255,
      "nier": 6256,
      "yol": 6257,
      "part": 6258,
      "fire": 6259,
      "kmen": 6260,
      "former": 6261,
      "ille": 6262,
      "works": 6263,
      "denis": 6264,
      "babylonia": 6265,
      "mori": 6266,
      "turkmen": 6267,
      "bahá": 6268,
      "christian": 6269,
      "obama": 6270,
      "college": 6271,
      "yểu": 6272,
      "galicia": 6273,
      "kennedy": 6274,
      "alaska": 6275,
      "levant": 6276,
      "develop": 6277,
      "kyrgyzstan": 6278,
      "(;": 6279,
      "944": 6280,
      "ahu": 6281,
      "bân": 6282,
      "cé": 6283,
      "dạt": 6284,
      "fol": 6285,
      "hq": 6286,
      "hú": 6287,
      "ire": 6288,
      "ite": 6289,
      "nành": 6290,
      "oun": 6291,
      "qđ": 6292,
      "rả": 6293,
      "rôm": 6294,
      "rela": 6295,
      "sạc": 6296,
      "tti": 6297,
      "xát": 6298,
      "île": 6299,
      "điên": 6300,
      "điểu": 6301,
      "ngải": 6302,
      "ngạt": 6303,
      "chọi": 6304,
      "ngham": 6305,
      "race": 6306,
      "thuỷ": 6307,
      "lov": 6308,
      "arpan": 6309,
      "encyclo": 6310,
      "bach": 6311,
      "law": 6312,
      "sukho": 6313,
      "hum": 6314,
      "1822": 6315,
      "1893": 6316,
      "andes": 6317,
      "101": 6318,
      "103": 6319,
      "liber": 6320,
      "rit": 6321,
      "sili": 6322,
      "silica": 6323,
      "napole": 6324,
      "1643": 6325,
      "seca": 6326,
      "mozam": 6327,
      "berry": 6328,
      "cartes": 6329,
      "pedro": 6330,
      "bique": 6331,
      "cke": 6332,
      "gad": 6333,
      "venia": 6334,
      "russell": 6335,
      "comple": 6336,
      "germain": 6337,
      "xoài": 6338,
      "zara": 6339,
      "itz": 6340,
      "wallon": 6341,
      "inawa": 6342,
      "yahoo": 6343,
      "wilson": 6344,
      "talk": 6345,
      "varia": 6346,
      "hondura": 6347,
      "brook": 6348,
      "simon": 6349,
      "colombo": 6350,
      "watt": 6351,
      "slovenia": 6352,
      "vnđ": 6353,
      "communi": 6354,
      "postscript": 6355,
      "fonseca": 6356,
      "munich": 6357,
      "dominica": 6358,
      "kilôgam": 6359,
      "marshall": 6360,
      "simeone": 6361,
      "arpanet": 6362,
      "mozambique": 6363,
      "honduras": 6364,
      "!\".": 6365,
      "\"(": 6366,
      ",\"": 6367,
      "1200": 6368,
      "260": 6369,
      "930": 6370,
      "960": 6371,
      "://": 6372,
      "bời": 6373,
      "còi": 6374,
      "dìu": 6375,
      "hano": 6376,
      "kis": 6377,
      "llo": 6378,
      "mg": 6379,
      "mỗ": 6380,
      "nỡ": 6381,
      "oce": 6382,
      "qa": 6383,
      "rong": 6384,
      "reli": 6385,
      "sli": 6386,
      "sưởi": 6387,
      "small": 6388,
      "tw": 6389,
      "xxi": 6390,
      "đút": 6391,
      "nhô": 6392,
      "nhũ": 6393,
      "nhện": 6394,
      "nhậu": 6395,
      "chớ": 6396,
      "cum": 6397,
      "indo": 6398,
      "doping": 6399,
      "ery": 6400,
      "enne": 6401,
      "tahi": 6402,
      "tinian": 6403,
      "esis": 6404,
      "viking": 6405,
      "elam": 6406,
      "suez": 6407,
      "bana": 6408,
      "bantu": 6409,
      "tivi": 6410,
      "leone": 6411,
      "1891": 6412,
      "1894": 6413,
      "104": 6414,
      "1279": 6415,
      "bỏng": 6416,
      "nap": 6417,
      "1661": 6418,
      "boole": 6419,
      "1433": 6420,
      "davis": 6421,
      "1377": 6422,
      "kit": 6423,
      "gold": 6424,
      "moder": 6425,
      "methan": 6426,
      "camero": 6427,
      "bian": 6428,
      "num": 6429,
      "lina": 6430,
      "eucli": 6431,
      "kok": 6432,
      "malta": 6433,
      "lẽo": 6434,
      "anato": 6435,
      "istant": 6436,
      "truman": 6437,
      "liston": 6438,
      "1803": 6439,
      "1806": 6440,
      "express": 6441,
      "iness": 6442,
      "diola": 6443,
      "central": 6444,
      "1504": 6445,
      "kyiv": 6446,
      "ksin": 6447,
      "franklin": 6448,
      "nais": 6449,
      "holland": 6450,
      "ubtv": 6451,
      "kurd": 6452,
      "köppen": 6453,
      "guardiola": 6454,
      "rhodes": 6455,
      "yểm": 6456,
      "philosophy": 6457,
      "pennsyl": 6458,
      "assistant": 6459,
      "association": 6460,
      "econo": 6461,
      "bilbao": 6462,
      "crimea": 6463,
      "cameroon": 6464,
      "euclid": 6465,
      "pennsylvania": 6466,
      "320": 6467,
      "cúi": 6468,
      "ebo": 6469,
      "egro": 6470,
      "fs": 6471,
      "flu": 6472,
      "gục": 6473,
      "gấm": 6474,
      "ggs": 6475,
      "hỉ": 6476,
      "hand": 6477,
      "iphone": 6478,
      "kr": 6479,
      "know": 6480,
      "lăm": 6481,
      "lắk": 6482,
      "mt": 6483,
      "mun": 6484,
      "nần": 6485,
      "nòng": 6486,
      "oto": 6487,
      "stein": 6488,
      "teo": 6489,
      "váy": 6490,
      "xp": 6491,
      "xót": 6492,
      "trăn": 6493,
      "khế": 6494,
      "aica": 6495,
      "radar": 6496,
      "chỉn": 6497,
      "ink": 6498,
      "insta": 6499,
      "saudi": 6500,
      "khoe": 6501,
      "enter": 6502,
      "visi": 6503,
      "chui": 6504,
      "chuset": 6505,
      "tial": 6506,
      "tite": 6507,
      "tiễu": 6508,
      "1862": 6509,
      "1896": 6510,
      "lian": 6511,
      "asian": 6512,
      "1735": 6513,
      "1799": 6514,
      "1771": 6515,
      "1773": 6516,
      "sid": 6517,
      "siri": 6518,
      "1648": 6519,
      "boa": 6520,
      "board": 6521,
      "sahel": 6522,
      "lyn": 6523,
      "kita": 6524,
      "vara": 6525,
      "march": 6526,
      "marco": 6527,
      "niko": 6528,
      "258": 6529,
      "uris": 6530,
      "urani": 6531,
      "monten": 6532,
      "celt": 6533,
      "franz": 6534,
      "sergio": 6535,
      "gamma": 6536,
      "minsky": 6537,
      "lish": 6538,
      "itō": 6539,
      "center": 6540,
      "frederi": 6541,
      "eiffel": 6542,
      "borland": 6543,
      "woo": 6544,
      "macinto": 6545,
      "english": 6546,
      "intelli": 6547,
      "uruk": 6548,
      "enzym": 6549,
      "nheim": 6550,
      "novak": 6551,
      "sebastian": 6552,
      "massachuset": 6553,
      "jones": 6554,
      "mathema": 6555,
      "sainz": 6556,
      "trinidad": 6557,
      "tokugawa": 6558,
      "foundation": 6559,
      "krym": 6560,
      "digital": 6561,
      "rưỡi": 6562,
      "development": 6563,
      "instagram": 6564,
      "montenegro": 6565,
      "macintosh": 6566,
      "massachusetts": 6567,
      ")\".": 6568,
      "aca": 6569,
      "cto": 6570,
      "cla": 6571,
      "cern": 6572,
      "dở": 6573,
      "diều": 6574,
      "dứa": 6575,
      "eta": 6576,
      "gni": 6577,
      "mrna": 6578,
      "nđ": 6579,
      "oe": 6580,
      "pis": 6581,
      "ses": 6582,
      "sand": 6583,
      "stri": 6584,
      "smart": 6585,
      "vướng": 6586,
      "xăm": 6587,
      "yl": 6588,
      "đùi": 6589,
      "nhát": 6590,
      "change": 6591,
      "khước": 6592,
      "howard": 6593,
      "look": 6594,
      "dives": 6595,
      "contr": 6596,
      "altai": 6597,
      "alaya": 6598,
      "taji": 6599,
      "imo": 6600,
      "bagh": 6601,
      "ort": 6602,
      "organ": 6603,
      "ties": 6604,
      "khảm": 6605,
      "macos": 6606,
      "185": 6607,
      "1842": 6608,
      "1869": 6609,
      "rian": 6610,
      "1277": 6611,
      "mômen": 6612,
      "sie": 6613,
      "cacao": 6614,
      "casus": 6615,
      "ust": 6616,
      "1558": 6617,
      "1697": 6618,
      "bob": 6619,
      "1467": 6620,
      "135": 6621,
      "tanjung": 6622,
      "pat": 6623,
      "gow": 6624,
      "chap": 6625,
      "gupta": 6626,
      "mari": 6627,
      "marie": 6628,
      "cana": 6629,
      "pear": 6630,
      "proto": 6631,
      "prolog": 6632,
      "sydney": 6633,
      "llen": 6634,
      "maldives": 6635,
      "nhịn": 6636,
      "franc": 6637,
      "serie": 6638,
      "ics": 6639,
      "entente": 6640,
      "burundi": 6641,
      "silver": 6642,
      "afc": 6643,
      "more": 6644,
      "gala": 6645,
      "hindi": 6646,
      "neutron": 6647,
      "caucasus": 6648,
      "matlab": 6649,
      "seoul": 6650,
      "crea": 6651,
      "sporting": 6652,
      "himalaya": 6653,
      "glasgow": 6654,
      "philippe": 6655,
      "school": 6656,
      "fication": 6657,
      "nucleotide": 6658,
      "sukhothai": 6659,
      "silicon": 6660,
      "napoleon": 6661,
      "wallonie": 6662,
      "ocean": 6663,
      "().": 6664,
      "bha": 6665,
      "cin": 6666,
      "dc": 6667,
      "edu": 6668,
      "fano": 6669,
      "ffe": 6670,
      "gao": 6671,
      "hí": 6672,
      "hans": 6673,
      "hẻo": 6674,
      "ize": 6675,
      "ivan": 6676,
      "nè": 6677,
      "nạ": 6678,
      "niệu": 6679,
      "oz": 6680,
      "oka": 6681,
      "pai": 6682,
      "sỉ": 6683,
      "tằng": 6684,
      "ui": 6685,
      "vế": 6686,
      "đắng": 6687,
      "nhạn": 6688,
      "thản": 6689,
      "thor": 6690,
      "thiếc": 6691,
      "chập": 6692,
      "chổi": 6693,
      "chlo": 6694,
      "chrome": 6695,
      "phồng": 6696,
      "quất": 6697,
      "quin": 6698,
      "ansi": 6699,
      "hot": 6700,
      "amon": 6701,
      "rafa": 6702,
      "dollar": 6703,
      "contai": 6704,
      "tak": 6705,
      "row": 6706,
      "rous": 6707,
      "1877": 6708,
      "1861": 6709,
      "neisser": 6710,
      "litz": 6711,
      "liberia": 6712,
      "123": 6713,
      "1545": 6714,
      "1593": 6715,
      "nahua": 6716,
      "144": 6717,
      "131": 6718,
      "1388": 6719,
      "mana": 6720,
      "manag": 6721,
      "khuya": 6722,
      "nike": 6723,
      "bility": 6724,
      "nhẹn": 6725,
      "905": 6726,
      "oglo": 6727,
      "belize": 6728,
      "desk": 6729,
      "ferdin": 6730,
      "1805": 6731,
      "acca": 6732,
      "centu": 6733,
      "samuel": 6734,
      "photo": 6735,
      "sunda": 6736,
      "universal": 6737,
      "britan": 6738,
      "genera": 6739,
      "geneva": 6740,
      "neumann": 6741,
      "business": 6742,
      "++,": 6743,
      "mossack": 6744,
      "heidelber": 6745,
      "athens": 6746,
      "semit": 6747,
      "court": 6748,
      "zzar": 6749,
      "struc": 6750,
      "abraham": 6751,
      "namibia": 6752,
      "information": 6753,
      "beijing": 6754,
      "dictionary": 6755,
      "neisseria": 6756,
      "management": 6757,
      "ferdinand": 6758,
      "2n": 6759,
      "biếu": 6760,
      "cf": 6761,
      "east": 6762,
      "fle": 6763,
      "fast": 6764,
      "góa": 6765,
      "gand": 6766,
      "hp": 6767,
      "hđ": 6768,
      "hinh": 6769,
      "kè": 6770,
      "kri": 6771,
      "lp": 6772,
      "lờ": 6773,
      "nville": 6774,
      "over": 6775,
      "psy": 6776,
      "pmc": 6777,
      "tiệm": 6778,
      "tòi": 6779,
      "vv": 6780,
      "vre": 6781,
      "xúi": 6782,
      "yếm": 6783,
      "ène": 6784,
      "đố": 6785,
      "đuống": 6786,
      "thắp": 6787,
      "chốc": 6788,
      "chiêng": 6789,
      "chines": 6790,
      "tria": 6791,
      "phẩy": 6792,
      "hoắc": 6793,
      "rac": 6794,
      "toy": 6795,
      "enburg": 6796,
      "nóc": 6797,
      "ngoặc": 6798,
      "tara": 6799,
      "espan": 6800,
      "vice": 6801,
      "sole": 6802,
      "rod": 6803,
      "robin": 6804,
      "banon": 6805,
      "hud": 6806,
      "tifi": 6807,
      "lebanon": 6808,
      "1865": 6809,
      "1892": 6810,
      "121": 6811,
      "122": 6812,
      "1293": 6813,
      "rea": 6814,
      "1767": 6815,
      "silic": 6816,
      "cation": 6817,
      "mile": 6818,
      "1620": 6819,
      "1497": 6820,
      "dex": 6821,
      "1329": 6822,
      "1398": 6823,
      "podium": 6824,
      "tralo": 6825,
      "nucle": 6826,
      "fact": 6827,
      "vos": 6828,
      "602": 6829,
      "rush": 6830,
      "station": 6831,
      "serge": 6832,
      "xoá": 6833,
      "shiba": 6834,
      "vincent": 6835,
      "australo": 6836,
      "transformer": 6837,
      "studies": 6838,
      "augustus": 6839,
      "lều": 6840,
      "isaac": 6841,
      "classi": 6842,
      "guiné": 6843,
      "powerpoint": 6844,
      "positron": 6845,
      "church": 6846,
      "jstor": 6847,
      "knowledge": 6848,
      "tajikistan": 6849,
      "chinese": 6850,
      "espanyol": 6851,
      "')": 6852,
      "()": 6853,
      "380": 6854,
      "917": 6855,
      "clin": 6856,
      "dơi": 6857,
      "diếp": 6858,
      "dẹt": 6859,
      "eise": 6860,
      "fec": 6861,
      "hard": 6862,
      "ichi": 6863,
      "ln": 6864,
      "mhc": 6865,
      "nao": 6866,
      "our": 6867,
      "oque": 6868,
      "sập": 6869,
      "sảo": 6870,
      "tla": 6871,
      "wir": 6872,
      "yy": 6873,
      "đậy": 6874,
      "ngừ": 6875,
      "thắn": 6876,
      "chet": 6877,
      "khăng": 6878,
      "quet": 6879,
      "iner": 6880,
      "alpes": 6881,
      "tuý": 6882,
      "cope": 6883,
      "imal": 6884,
      "suýt": 6885,
      "1875": 6886,
      "1876": 6887,
      "neder": 6888,
      "rico": 6889,
      "1287": 6890,
      "chill": 6891,
      "cad": 6892,
      "caesar": 6893,
      "usa": 6894,
      "154": 6895,
      "1646": 6896,
      "dafi": 6897,
      "trẻo": 6898,
      "saki": 6899,
      "saxon": 6900,
      "nhuần": 6901,
      "tania": 6902,
      "paper": 6903,
      "gos": 6904,
      "haas": 6905,
      "gensis": 6906,
      "bir": 6907,
      "fat": 6908,
      "nhower": 6909,
      "jab": 6910,
      "japan": 6911,
      "]):": 6912,
      "calcu": 6913,
      "cles": 6914,
      "1882": 6915,
      "mind": 6916,
      "ference": 6917,
      "carbonat": 6918,
      "lẻn": 6919,
      "harry": 6920,
      "1509": 6921,
      "nassr": 6922,
      "hispan": 6923,
      "routine": 6924,
      "plaza": 6925,
      "louisiana": 6926,
      "rôman": 6927,
      "douglas": 6928,
      "visual": 6929,
      "piaget": 6930,
      "nikko": 6931,
      "mün": 6932,
      "nelson": 6933,
      "hlv": 6934,
      "outlook": 6935,
      "scand": 6936,
      "carbohydrate": 6937,
      "buddha": 6938,
      "claude": 6939,
      "stroll": 6940,
      "govina": 6941,
      "españa": 6942,
      "logistics": 6943,
      "gaddafi": 6944,
      "modern": 6945,
      "anatolia": 6946,
      "control": 6947,
      "heidelbergensis": 6948,
      "eisenhower": 6949,
      "480": 6950,
      "blan": 6951,
      "blem": 6952,
      "dle": 6953,
      "dha": 6954,
      "even": 6955,
      "ecua": 6956,
      "fuk": 6957,
      "gly": 6958,
      "gha": 6959,
      "gros": 6960,
      "hống": 6961,
      "hấn": 6962,
      "hòng": 6963,
      "hmong": 6964,
      "ice": 6965,
      "its": 6966,
      "kt": 6967,
      "ká": 6968,
      "lạch": 6969,
      "odo": 6970,
      "pris": 6971,
      "plus": 6972,
      "rơ": 6973,
      "riềng": 6974,
      "sầu": 6975,
      "ski": 6976,
      "yale": 6977,
      "zza": 6978,
      "³.": 6979,
      "đát": 6980,
      "nge": 6981,
      "nhấp": 6982,
      "khali": 6983,
      "quar": 6984,
      "ann": 6985,
      "améri": 6986,
      "tool": 6987,
      "theodo": 6988,
      "ena": 6989,
      "ener": 6990,
      "ense": 6991,
      "alger": 6992,
      "allen": 6993,
      "luỹ": 6994,
      "lucia": 6995,
      "tuẫn": 6996,
      "esa": 6997,
      "cose": 6998,
      "vier": 6999,
      "soán": 7000,
      "bad": 7001,
      "bazan": 7002,
      "road": 7003,
      "ista": 7004,
      "hito": 7005,
      "124": 7006,
      "regi": 7007,
      "read": 7008,
      "148": 7009,
      "1437": 7010,
      "1300": 7011,
      "cept": 7012,
      "tamil": 7013,
      "goza": 7014,
      "sed": 7015,
      "haha": 7016,
      "mexi": 7017,
      "gul": 7018,
      "guồng": 7019,
      "luyến": 7020,
      "fiji": 7021,
      "cken": 7022,
      "puer": 7023,
      "kawa": 7024,
      "jaco": 7025,
      "problem": 7026,
      "226": 7027,
      "etton": 7028,
      "mond": 7029,
      "peri": 7030,
      "person": 7031,
      "senna": 7032,
      "karst": 7033,
      "kura": 7034,
      "descartes": 7035,
      "thara": 7036,
      "software": 7037,
      "ental": 7038,
      "ship": 7039,
      "shiki": 7040,
      "burn": 7041,
      "value": 7042,
      "benfica": 7043,
      "benetton": 7044,
      "tennis": 7045,
      "wart": 7046,
      "abdu": 7047,
      "guatem": 7048,
      "wasabi": 7049,
      "blog": 7050,
      "alexand": 7051,
      "boston": 7052,
      "supercopa": 7053,
      "kelvin": 7054,
      "social": 7055,
      "peso": 7056,
      "ushima": 7057,
      "memory": 7058,
      "kauthara": 7059,
      "gmt": 7060,
      "oracle": 7061,
      "bibcode": 7062,
      "glucose": 7063,
      "zaragoza": 7064,
      "desktop": 7065,
      "century": 7066,
      "australopithe": 7067,
      "ecuador": 7068,
      "fukushima": 7069,
      "américa": 7070,
      "guatemala": 7071,
      ".{{": 7072,
      "award": 7073,
      "bôn": 7074,
      "báng": 7075,
      "blin": 7076,
      "bron": 7077,
      "cược": 7078,
      "cess": 7079,
      "fé": 7080,
      "gờ": 7081,
      "hana": 7082,
      "ito": 7083,
      "iki": 7084,
      "ló": 7085,
      "lười": 7086,
      "lắc": 7087,
      "lẫm": 7088,
      "lõng": 7089,
      "m2": 7090,
      "nạo": 7091,
      "nãi": 7092,
      "pyo": 7093,
      "rằm": 7094,
      "rặng": 7095,
      "tía": 7096,
      "yêm": 7097,
      "ờn": 7098,
      "ủa": 7099,
      "nhòm": 7100,
      "nhõm": 7101,
      "thối": 7102,
      "that": 7103,
      "thèm": 7104,
      "phon": 7105,
      "quo": 7106,
      "hok": 7107,
      "amori": 7108,
      "anglo": 7109,
      "onto": 7110,
      "nhàm": 7111,
      "down": 7112,
      "ars": 7113,
      "eno": 7114,
      "algol": 7115,
      "imi": 7116,
      "solar": 7117,
      "rol": 7118,
      "rotter": 7119,
      "cổn": 7120,
      "suhar": 7121,
      "lear": 7122,
      "1812": 7123,
      "1859": 7124,
      "1864": 7125,
      "neck": 7126,
      "lipid": 7127,
      "127": 7128,
      "129": 7129,
      "1795": 7130,
      "1677": 7131,
      "1687": 7132,
      "dea": 7133,
      "133": 7134,
      "pata": 7135,
      "hyper": 7136,
      "xửng": 7137,
      "tama": 7138,
      "goe": 7139,
      "gou": 7140,
      "see": 7141,
      "berto": 7142,
      "pique": 7143,
      "marc": 7144,
      "canton": 7145,
      "yoko": 7146,
      "nuốt": 7147,
      "put": 7148,
      "ileo": 7149,
      "gera": 7150,
      "ved": 7151,
      "ppp": 7152,
      "1005": 7153,
      "euphra": 7154,
      "mendel": 7155,
      "cale": 7156,
      "nhẹt": 7157,
      "compan": 7158,
      ",...)": 7159,
      "lisboa": 7160,
      "itsu": 7161,
      "print": 7162,
      "warner": 7163,
      "galileo": 7164,
      "kswagen": 7165,
      "instru": 7166,
      "brown": 7167,
      "olympique": 7168,
      "gainville": 7169,
      "blood": 7170,
      "systema": 7171,
      "alexa": 7172,
      "sars": 7173,
      "distri": 7174,
      "1127": 7175,
      "volkswagen": 7176,
      "bougainville": 7177,
      "constantin": 7178,
      "singer": 7179,
      "tasman": 7180,
      "nicolas": 7181,
      "blackberry": 7182,
      "cornwall": 7183,
      "ptolem": 7184,
      "reasoning": 7185,
      "tahiti": 7186,
      "uranium": 7187,
      "gandhi": 7188,
      "münchen": 7189,
      "pyotr": 7190,
      "amorite": 7191,
      "rotterdam": 7192,
      "suharto": 7193,
      "neckar": 7194,
      "euphrates": 7195,
      "company": 7196,
      "420": 7197,
      "618": 7198,
      "937": 7199,
      "aja": 7200,
      "abc": 7201,
      "cùi": 7202,
      "fuku": 7203,
      "gởi": 7204,
      "gri": 7205,
      "jim": 7206,
      "kins": 7207,
      "lạo": 7208,
      "nạc": 7209,
      "nba": 7210,
      "nari": 7211,
      "rũ": 7212,
      "sồi": 7213,
      "scha": 7214,
      "sói": 7215,
      "selec": 7216,
      "uc": 7217,
      "vá": 7218,
      "vỉ": 7219,
      "what": 7220,
      "xóc": 7221,
      "yon": 7222,
      "ỏm": 7223,
      "ngậm": 7224,
      "nhổ": 7225,
      "nhức": 7226,
      "thới": 7227,
      "phèn": 7228,
      "hou": 7229,
      "hous": 7230,
      "rao": 7231,
      "toshiba": 7232,
      "eole": 7233,
      "ergas": 7234,
      "dire": 7235,
      "alth": 7236,
      "alba": 7237,
      "tuông": 7238,
      "ello": 7239,
      "soro": 7240,
      "rola": 7241,
      "isi": 7242,
      "sue": 7243,
      "til": 7244,
      "letico": 7245,
      "1851": 7246,
      "1076": 7247,
      "review": 7248,
      "1750": 7249,
      "migu": 7250,
      "mics": 7251,
      "milim": 7252,
      "1540": 7253,
      "1599": 7254,
      "1675": 7255,
      "1470": 7256,
      "1479": 7257,
      "1314": 7258,
      "polo": 7259,
      "sevilla": 7260,
      "ruồi": 7261,
      "mour": 7262,
      "met": 7263,
      "mecca": 7264,
      "cky": 7265,
      "illa": 7266,
      "nhoáng": 7267,
      "xôma": 7268,
      "atletico": 7269,
      "235": 7270,
      "taire": 7271,
      "ports": 7272,
      "malacca": 7273,
      "mayer": 7274,
      "hey": 7275,
      "delphi": 7276,
      "celsius": 7277,
      "sene": 7278,
      "wak": 7279,
      "lisp": 7280,
      "icia": 7281,
      "derby": 7282,
      "hổng": 7283,
      "979": 7284,
      "cyrus": 7285,
      "cord": 7286,
      "casti": 7287,
      "dragon": 7288,
      "lympic": 7289,
      "horn": 7290,
      "morris": 7291,
      "creole": 7292,
      "clarke": 7293,
      "disney": 7294,
      "paralympic": 7295,
      "august": 7296,
      "hòe": 7297,
      "bytecode": 7298,
      "micron": 7299,
      "white": 7300,
      "motorola": 7301,
      "harivarman": 7302,
      "melanesia": 7303,
      "phosph": 7304,
      "felipe": 7305,
      "vatican": 7306,
      "jesus": 7307,
      "phoenicia": 7308,
      "gödel": 7309,
      "frederick": 7310,
      "intelligence": 7311,
      "container": 7312,
      "rousseau": 7313,
      "oglobin": 7314,
      "houston": 7315,
      "ergaster": 7316,
      "soroban": 7317,
      "miguel": 7318,
      "milimét": 7319,
      "%/": 7320,
      "($": 7321,
      ".).": 7322,
      "225": 7323,
      "840": 7324,
      "965": 7325,
      "agen": 7326,
      "bói": 7327,
      "blen": 7328,
      "cỏi": 7329,
      "ether": 7330,
      "gàng": 7331,
      "gge": 7332,
      "hiềm": 7333,
      "ium": 7334,
      "mr": 7335,
      "mượt": 7336,
      "nán": 7337,
      "ow": 7338,
      "ocen": 7339,
      "peo": 7340,
      "ppi": 7341,
      "pali": 7342,
      "qi": 7343,
      "reo": 7344,
      "rent": 7345,
      "sl": 7346,
      "spo": 7347,
      "séné": 7348,
      "tấc": 7349,
      "uv": 7350,
      "xẻ": 7351,
      "xuy": 7352,
      "xước": 7353,
      "yd": 7354,
      "zh": 7355,
      "zer": 7356,
      "zal": 7357,
      "éfano": 7358,
      "chand": 7359,
      "trọ": 7360,
      "giấm": 7361,
      "inho": 7362,
      "nghé": 7363,
      "choàng": 7364,
      "hore": 7365,
      "nhưỡng": 7366,
      "insi": 7367,
      "too": 7368,
      "207": 7369,
      "209": 7370,
      "uatu": 7371,
      "conca": 7372,
      "allah": 7373,
      "eme": 7374,
      "tab": 7375,
      "),...": 7376,
      "como": 7377,
      "ella": 7378,
      "ishi": 7379,
      "island": 7380,
      "buchad": 7381,
      "sumi": 7382,
      "leptis": 7383,
      "1819": 7384,
      "1814": 7385,
      "1878": 7386,
      "1016": 7387,
      "1075": 7388,
      "nezzar": 7389,
      "nebuchad": 7390,
      "libra": 7391,
      "rie": 7392,
      "126": 7393,
      "1729": 7394,
      "natri": 7395,
      "166": 7396,
      "1623": 7397,
      "143": 7398,
      "146": 7399,
      "1371": 7400,
      "sach": 7401,
      "popper": 7402,
      "...),": 7403,
      "seat": 7404,
      "mega": 7405,
      "mekong": 7406,
      "young": 7407,
      "fide": 7408,
      "form": 7409,
      "stéfano": 7410,
      "atlas": 7411,
      "linna": 7412,
      "scots": 7413,
      "eds": 7414,
      "kevin": 7415,
      "wara": 7416,
      "1881": 7417,
      "truật": 7418,
      "okinawa": 7419,
      "vanuatu": 7420,
      "ballon": 7421,
      "carbonic": 7422,
      "rence": 7423,
      "herbert": 7424,
      "tenoch": 7425,
      "histori": 7426,
      "graph": 7427,
      "block": 7428,
      "player": 7429,
      "jeon": 7430,
      "larry": 7431,
      "velle": 7432,
      "dings": 7433,
      "magnus": 7434,
      "tune": 7435,
      "christo": 7436,
      "drive": 7437,
      "bundes": 7438,
      "princi": 7439,
      "phraya": 7440,
      "class": 7441,
      "daejeon": 7442,
      "edition": 7443,
      "titlan": 7444,
      "princeton": 7445,
      "taliban": 7446,
      "orbital": 7447,
      "ubtvqh15": 7448,
      "baghdad": 7449,
      "rafael": 7450,
      "nahuatl": 7451,
      "puerto": 7452,
      "sénégal": 7453,
      "concacaf": 7454,
      "nebuchadnezzar": 7455,
      "tenochtitlan": 7456,
      "avarman": 7457,
      "bung": 7458,
      "ctions": 7459,
      "dwi": 7460,
      "ffi": 7461,
      "hec": 7462,
      "jima": 7463,
      "kun": 7464,
      "kèn": 7465,
      "lơ": 7466,
      "mống": 7467,
      "nà": 7468,
      "nến": 7469,
      "oxit": 7470,
      "pm": 7471,
      "ppo": 7472,
      "pana": 7473,
      "rì": 7474,
      "rmb": 7475,
      "sz": 7476,
      "sỡ": 7477,
      "sái": 7478,
      "sler": 7479,
      "stop": 7480,
      "tto": 7481,
      "vạc": 7482,
      "vừng": 7483,
      "xế": 7484,
      "xiết": 7485,
      "thà": 7486,
      "chửi": 7487,
      "trổ": 7488,
      "trảm": 7489,
      "quẩn": 7490,
      "nghén": 7491,
      "hoku": 7492,
      "aipa": 7493,
      "inte": 7494,
      "india": 7495,
      "dolf": 7496,
      "tol": 7497,
      "ering": 7498,
      "xus": 7499,
      "enia": 7500,
      "als": 7501,
      "tatar": 7502,
      "cogni": 7503,
      "sovo": 7504,
      "bak": 7505,
      "bui": 7506,
      "bani": 7507,
      "hub": 7508,
      "tium": 7509,
      "đôla": 7510,
      "maha": 7511,
      "major": 7512,
      "1810": 7513,
      "1821": 7514,
      "light": 7515,
      "172": 7516,
      "tep": 7517,
      "singh": 7518,
      "ushu": 7519,
      "165": 7520,
      "1619": 7521,
      "1642": 7522,
      "1693": 7523,
      "1672": 7524,
      "1683": 7525,
      "145": 7526,
      "1459": 7527,
      "kimi": 7528,
      "1341": 7529,
      "1372": 7530,
      "1100": 7531,
      "pots": 7532,
      "kiri": 7533,
      "goth": 7534,
      "ruốc": 7535,
      "rudolf": 7536,
      "geno": 7537,
      "vada": 7538,
      "night": 7539,
      "carol": 7540,
      "parthia": 7541,
      "gara": 7542,
      "gabon": 7543,
      "netbook": 7544,
      "vegas": 7545,
      "rano": 7546,
      "baroque": 7547,
      "kosovo": 7548,
      "worth": 7549,
      "hammura": 7550,
      "brad": 7551,
      "cross": 7552,
      "hed": 7553,
      "delta": 7554,
      "anak": 7555,
      "stad": 7556,
      "shiva": 7557,
      "queens": 7558,
      "476": 7559,
      "act": 7560,
      "arif": 7561,
      "1402": 7562,
      "1409": 7563,
      "vices": 7564,
      "plate": 7565,
      "steve": 7566,
      "ful": 7567,
      "turn": 7568,
      "daily": 7569,
      "southern": 7570,
      "ipv": 7571,
      "kaido": 7572,
      "kassite": 7573,
      "spring": 7574,
      "seman": 7575,
      "bruxel": 7576,
      "köln": 7577,
      "falcon": 7578,
      "zambia": 7579,
      "gneau": 7580,
      "stream": 7581,
      "issn": 7582,
      "kilogram": 7583,
      "carbohydrat": 7584,
      "sciences": 7585,
      "madeira": 7586,
      "tobago": 7587,
      "saddam": 7588,
      "turkmenistan": 7589,
      "ounce": 7590,
      "kissinger": 7591,
      "hokkaido": 7592,
      "learning": 7593,
      "eniac": 7594,
      "potsdam": 7595,
      "hammurabi": 7596,
      "bruxelles": 7597,
      "310": 7598,
      "911": 7599,
      "av": 7600,
      "athen": 7601,
      "cạo": 7602,
      "cine": 7603,
      "dhabi": 7604,
      "eti": 7605,
      "epi": 7606,
      "fm": 7607,
      "g7": 7608,
      "gard": 7609,
      "hdi": 7610,
      "húng": 7611,
      "ipad": 7612,
      "juni": 7613,
      "kno": 7614,
      "krom": 7615,
      "mép": 7616,
      "nếm": 7617,
      "orang": 7618,
      "ozon": 7619,
      "pay": 7620,
      "pênh": 7621,
      "rê": 7622,
      "rel": 7623,
      "sô": 7624,
      "scu": 7625,
      "sặc": 7626,
      "sạt": 7627,
      "siêng": 7628,
      "sếp": 7629,
      "sụn": 7630,
      "tent": 7631,
      "vơ": 7632,
      "vãng": 7633,
      "zar": 7634,
      "êng": 7635,
      "ơng": 7636,
      "ngốc": 7637,
      "nhút": 7638,
      "thro": 7639,
      "thẹn": 7640,
      "châ": 7641,
      "chas": 7642,
      "chỏm": 7643,
      "phiếm": 7644,
      "ginia": 7645,
      "anus": 7646,
      "choles": 7647,
      "amar": 7648,
      "họng": 7649,
      "cut": 7650,
      "cũi": 7651,
      "khiêng": 7652,
      "lose": 7653,
      "love": 7654,
      "docu": 7655,
      "togo": 7656,
      "ark": 7657,
      "aram": 7658,
      "lux": 7659,
      "emper": 7660,
      "taxi": 7661,
      "este": 7662,
      "vil": 7663,
      "imer": 7664,
      "sour": 7665,
      "robo": 7666,
      "lad": 7667,
      "sure": 7668,
      "lec": 7669,
      "matic": 7670,
      "189": 7671,
      "1818": 7672,
      "1855": 7673,
      "1044": 7674,
      "phila": 7675,
      "ashur": 7676,
      "1700": 7677,
      "1780": 7678,
      "child": 7679,
      "capi": 7680,
      "michi": 7681,
      "mill": 7682,
      "152": 7683,
      "157": 7684,
      "1535": 7685,
      "1640": 7686,
      "1694": 7687,
      "141": 7688,
      "1418": 7689,
      "1426": 7690,
      "1429": 7691,
      "1434": 7692,
      "dev": 7693,
      "dera": 7694,
      "terol": 7695,
      "1380": 7696,
      "1390": 7697,
      "nhagen": 7698,
      "bangkok": 7699,
      "pati": 7700,
      "pack": 7701,
      "pagan": 7702,
      "gothic": 7703,
      "moon": 7704,
      "moham": 7705,
      "mosco": 7706,
      "mei": 7707,
      "xing": 7708,
      "bèo": 7709,
      "thebes": 7710,
      "petro": 7711,
      "figo": 7712,
      "gates": 7713,
      "gabri": 7714,
      "note": 7715,
      "257": 7716,
      "ality": 7717,
      "shel": 7718,
      "jazz": 7719,
      "proces": 7720,
      "vod": 7721,
      "228": 7722,
      "sonian": 7723,
      "unit": 7724,
      "ets": 7725,
      "head": 7726,
      "cell": 7727,
      "zegovina": 7728,
      "stat": 7729,
      "states": 7730,
      "lisbon": 7731,
      "1807": 7732,
      "lend": 7733,
      "championship": 7734,
      "herzegovina": 7735,
      "castro": 7736,
      "nash": 7737,
      "britain": 7738,
      "auss": 7739,
      "airbus": 7740,
      "plata": 7741,
      "stewart": 7742,
      "hydroxide": 7743,
      "broad": 7744,
      "iniesta": 7745,
      "alexandre": 7746,
      "arab": 7747,
      "christ": 7748,
      "réunion": 7749,
      "limi": 7750,
      "kềnh": 7751,
      "smithsonian": 7752,
      "malawi": 7753,
      "indrapura": 7754,
      "1175": 7755,
      "bunraku": 7756,
      "virginia": 7757,
      "mamlu": 7758,
      "rhine": 7759,
      "chàm": 7760,
      "cooper": 7761,
      "hilbert": 7762,
      "bacter": 7763,
      "alumina": 7764,
      "churchill": 7765,
      "、、、、": 7766,
      "multi": 7767,
      "sarawak": 7768,
      "punjab": 7769,
      "analysis": 7770,
      "mouth": 7771,
      "silicat": 7772,
      "smalltalk": 7773,
      "mtdna": 7774,
      "canaan": 7775,
      "copenhagen": 7776,
      "nederland": 7777,
      "alexandria": 7778,
      "ajax": 7779,
      "micronesia": 7780,
      "people": 7781,
      "cholesterol": 7782,
      "moscow": 7783,
      "gabriel": 7784,
      "''": 7785,
      "224": 7786,
      "544": 7787,
      "bx": 7788,
      "bêu": 7789,
      "bấm": 7790,
      "cz": 7791,
      "câm": 7792,
      "desia": 7793,
      "eur": 7794,
      "fy": 7795,
      "fta": 7796,
      "fron": 7797,
      "gna": 7798,
      "gặm": 7799,
      "há": 7800,
      "hốc": 7801,
      "hạp": 7802,
      "kami": 7803,
      "lọ": 7804,
      "lọng": 7805,
      "lhq": 7806,
      "mải": 7807,
      "mọng": 7808,
      "mìn": 7809,
      "mướt": 7810,
      "nọ": 7811,
      "nậm": 7812,
      "nòi": 7813,
      "nấng": 7814,
      "nanak": 7815,
      "oid": 7816,
      "pine": 7817,
      "pson": 7818,
      "rt": 7819,
      "rim": 7820,
      "squ": 7821,
      "sty": 7822,
      "tẩu": 7823,
      "tsky": 7824,
      "uý": 7825,
      "whit": 7826,
      "yen": 7827,
      "yard": 7828,
      "z3": 7829,
      "đễ": 7830,
      "ệch": 7831,
      "ngen": 7832,
      "chói": 7833,
      "chệch": 7834,
      "trèo": 7835,
      "phnôm": 7836,
      "giỏ": 7837,
      "giga": 7838,
      "aman": 7839,
      "onal": 7840,
      "cular": 7841,
      "nguyền": 7842,
      "indian": 7843,
      "indus": 7844,
      "dit": 7845,
      "untu": 7846,
      "unya": 7847,
      "conme": 7848,
      "concept": 7849,
      "empi": 7850,
      "tura": 7851,
      "villen": 7852,
      "els": 7853,
      "bati": 7854,
      "baham": 7855,
      "bahn": 7856,
      "titan": 7857,
      "lease": 7858,
      "lehman": 7859,
      "1838": 7860,
      "1879": 7861,
      "1857": 7862,
      "little": 7863,
      "rive": 7864,
      "report": 7865,
      "revolution": 7866,
      "176": 7867,
      "177": 7868,
      "1736": 7869,
      "1741": 7870,
      "1794": 7871,
      "1796": 7872,
      "thium": 7873,
      "cara": 7874,
      "miocen": 7875,
      "155": 7876,
      "1522": 7877,
      "1580": 7878,
      "1568": 7879,
      "nagar": 7880,
      "natural": 7881,
      "169": 7882,
      "1660": 7883,
      "1635": 7884,
      "1636": 7885,
      "boro": 7886,
      "1453": 7887,
      "deco": 7888,
      "1369": 7889,
      "sadd": 7890,
      "mans": 7891,
      "mansa": 7892,
      "pos": 7893,
      "popu": 7894,
      "pir": 7895,
      "week": 7896,
      "cir": 7897,
      "beu": 7898,
      "beau": 7899,
      "nokia": 7900,
      "255": 7901,
      "prost": 7902,
      "249": 7903,
      "voya": 7904,
      "605": 7905,
      "227": 7906,
      "percy": 7907,
      "hebre": 7908,
      "ronald": 7909,
      "zawa": 7910,
      "exp": 7911,
      "951": 7912,
      "dance": 7913,
      "diata": 7914,
      "afri": 7915,
      "georgia": 7916,
      "sundiata": 7917,
      "kyushu": 7918,
      "abbas": 7919,
      "genetic": 7920,
      "frankenstein": 7921,
      "policy": 7922,
      "basque": 7923,
      "brother": 7924,
      "speech": 7925,
      "zig": 7926,
      "lord": 7927,
      "ubuntu": 7928,
      "catalunya": 7929,
      "bruce": 7930,
      "lyonnais": 7931,
      "shannon": 7932,
      "rhodesia": 7933,
      "ethno": 7934,
      "johann": 7935,
      "murasaki": 7936,
      "antonio": 7937,
      "indiana": 7938,
      "publishing": 7939,
      "ltd": 7940,
      "hominin": 7941,
      "alfonso": 7942,
      "encyclopedia": 7943,
      "boolean": 7944,
      "ebola": 7945,
      "hudson": 7946,
      "factbook": 7947,
      "ikigai": 7948,
      "seattle": 7949,
      "linnaeus": 7950,
      "square": 7951,
      "conmebol": 7952,
      "bahamas": 7953,
      "hebrew": 7954,
      ")),": 7955,
      ",....": 7956,
      "218": 7957,
      "216": 7958,
      "430": 7959,
      "540": 7960,
      "770": 7961,
      "850": 7962,
      ":[": 7963,
      "==": 7964,
      "agas": 7965,
      "bùa": 7966,
      "biếng": 7967,
      "bqh": 7968,
      "cts": 7969,
      "dì": 7970,
      "dũ": 7971,
      "dang": 7972,
      "fish": 7973,
      "gắm": 7974,
      "gger": 7975,
      "gps": 7976,
      "hác": 7977,
      "iq": 7978,
      "ida": 7979,
      "iet": 7980,
      "ioc": 7981,
      "ization": 7982,
      "kō": 7983,
      "kiền": 7984,
      "lun": 7985,
      "lỏi": 7986,
      "lgb": 7987,
      "mya": 7988,
      "nc": 7989,
      "nã": 7990,
      "nấp": 7991,
      "nen": 7992,
      "náu": 7993,
      "oro": 7994,
      "ost": 7995,
      "ody": 7996,
      "rọc": 7997,
      "sậy": 7998,
      "sẫm": 7999,
      "tm": 8000,
      "tsi": 8001,
      "uko": 8002,
      "vm": 8003,
      "xt": 8004,
      "x86": 8005,
      "²)": 8006,
      "³,": 8007,
      "écm": 8008,
      "đbqh": 8009,
      "ẳm": 8010,
      "ngỏ": 8011,
      "ngây": 8012,
      "thây": 8013,
      "thừng": 8014,
      "thard": 8015,
      "thẳm": 8016,
      "khất": 8017,
      "khiên": 8018,
      "khrush": 8019,
      "qué": 8020,
      "giễu": 8021,
      "giécm": 8022,
      "anthon": 8023,
      "cói": 8024,
      "việp": 8025,
      "amin": 8026,
      "cun": 8027,
      "inca": 8028,
      "lod": 8029,
      "domi": 8030,
      "toát": 8031,
      "disco": 8032,
      "contin": 8033,
      "conne": 8034,
      "estro": 8035,
      "cov": 8036,
      "coul": 8037,
      "vio": 8038,
      "som": 8039,
      "chus": 8040,
      "rob": 8041,
      "gót": 8042,
      "1839": 8043,
      "rida": 8044,
      "1271": 8045,
      "assem": 8046,
      "1760": 8047,
      "1770": 8048,
      "side": 8049,
      "1519": 8050,
      "1570": 8051,
      "1573": 8052,
      "168": 8053,
      "1613": 8054,
      "1630": 8055,
      "1645": 8056,
      "1674": 8057,
      "142": 8058,
      "1466": 8059,
      "nhuế": 8060,
      "tanie": 8061,
      "pold": 8062,
      "pound": 8063,
      "paci": 8064,
      "mous": 8065,
      "mode": 8066,
      "vate": 8067,
      "guil": 8068,
      "ghe": 8069,
      "ghts": 8070,
      "marse": 8071,
      "niu": 8072,
      "pet": 8073,
      "fit": 8074,
      "force": 8075,
      "fortune": 8076,
      "kat": 8077,
      "shia": 8078,
      "shtra": 8079,
      "euve": 8080,
      "264": 8081,
      "ments": 8082,
      "mental": 8083,
      "bral": 8084,
      "porto": 8085,
      "porsche": 8086,
      "moni": 8087,
      "wich": 8088,
      "santo": 8089,
      "sankt": 8090,
      "hep": 8091,
      "delphia": 8092,
      "chey": 8093,
      "tten": 8094,
      "ttnt": 8095,
      ",...),": 8096,
      "bombay": 8097,
      "trek": 8098,
      "exchange": 8099,
      "954": 8100,
      "487": 8101,
      "will": 8102,
      "wski": 8103,
      "shira": 8104,
      "pyg": 8105,
      "ramen": 8106,
      "1505": 8107,
      "crip": 8108,
      "histo": 8109,
      "phobos": 8110,
      "wars": 8111,
      "dynam": 8112,
      "hittite": 8113,
      "zulu": 8114,
      "turner": 8115,
      "jamaica": 8116,
      "politan": 8117,
      "bourne": 8118,
      "xíu": 8119,
      "playstation": 8120,
      "shah": 8121,
      "gusta": 8122,
      "melbourne": 8123,
      "peterburg": 8124,
      "slot": 8125,
      "gaulois": 8126,
      "cọp": 8127,
      "guardian": 8128,
      "lications": 8129,
      "phaolô": 8130,
      "mauritanie": 8131,
      "diesel": 8132,
      "cookie": 8133,
      "alfredo": 8134,
      "caroling": 8135,
      "greenland": 8136,
      "engineering": 8137,
      "moravia": 8138,
      "cruz": 8139,
      "wolf": 8140,
      "carthage": 8141,
      "number": 8142,
      "silverstone": 8143,
      "psycho": 8144,
      "dhaka": 8145,
      "gờm": 8146,
      "vỉa": 8147,
      "christopher": 8148,
      "hecta": 8149,
      "philadelphia": 8150,
      "limited": 8151,
      "villeneuve": 8152,
      "agassi": 8153,
      "lgbt": 8154,
      "khrushchev": 8155,
      "giécmanh": 8156,
      "anthony": 8157,
      "coulthard": 8158,
      "assemb": 8159,
      "2d": 8160,
      "217": 8161,
      "435": 8162,
      "433": 8163,
      "573": 8164,
      "923": 8165,
      "abel": 8166,
      "aware": 8167,
      "bớ": 8168,
      "cti": 8169,
      "cry": 8170,
      "dè": 8171,
      "gli": 8172,
      "hes": 8173,
      "iz": 8174,
      "iden": 8175,
      "jas": 8176,
      "kina": 8177,
      "lẩn": 8178,
      "lóc": 8179,
      "luna": 8180,
      "mỳ": 8181,
      "mốt": 8182,
      "nk": 8183,
      "ocon": 8184,
      "p2": 8185,
      "puy": 8186,
      "rcep": 8187,
      "spen": 8188,
      "tau": 8189,
      "tbui": 8190,
      "ug": 8191,
      "uli": 8192,
      "vắn": 8193,
      "vùi": 8194,
      "x2": 8195,
      "xang": 8196,
      "xéo": 8197,
      "zid": 8198,
      "árez": 8199,
      "ís": 8200,
      "ngách": 8201,
      "nhối": 8202,
      "chy": 8203,
      "chang": 8204,
      "chồi": 8205,
      "trặc": 8206,
      "trêu": 8207,
      "phớ": 8208,
      "phộng": 8209,
      "phis": 8210,
      "phớt": 8211,
      "khal": 8212,
      "gis": 8213,
      "gibral": 8214,
      "andor": 8215,
      "nghai": 8216,
      "hof": 8217,
      "amd": 8218,
      "auré": 8219,
      "oni": 8220,
      "insu": 8221,
      "lot": 8222,
      "toro": 8223,
      "sauber": 8224,
      "203": 8225,
      "bịt": 8226,
      "diamon": 8227,
      "aro": 8228,
      "ene": 8229,
      "allo": 8230,
      "đoản": 8231,
      "cot": 8232,
      "vista": 8233,
      "bata": 8234,
      "chum": 8235,
      "chuốt": 8236,
      "rose": 8237,
      "lace": 8238,
      "lagos": 8239,
      "ors": 8240,
      "tie": 8241,
      "lexus": 8242,
      "muống": 8243,
      "muỗi": 8244,
      "nữu": 8245,
      "1210": 8246,
      "1290": 8247,
      "1234": 8248,
      "aston": 8249,
      "asimo": 8250,
      "1711": 8251,
      "1722": 8252,
      "1797": 8253,
      "1768": 8254,
      "1739": 8255,
      "sian": 8256,
      "mikhai": 8257,
      "153": 8258,
      "1556": 8259,
      "naz": 8260,
      "161": 8261,
      "164": 8262,
      "1647": 8263,
      "1682": 8264,
      "body": 8265,
      "manche": 8266,
      "pac": 8267,
      "rum": 8268,
      "modi": 8269,
      "vac": 8270,
      "mee": 8271,
      "gur": 8272,
      "bernard": 8273,
      "piano": 8274,
      "marck": 8275,
      "marcus": 8276,
      "cantor": 8277,
      "tone": 8278,
      "bez": 8279,
      "nur": 8280,
      "pul": 8281,
      "forei": 8282,
      "fortran": 8283,
      "shell": 8284,
      "produ": 8285,
      "profes": 8286,
      "aten": 8287,
      "lini": 8288,
      "223": 8289,
      "lụi": 8290,
      "boni": 8291,
      "tỉa": 8292,
      "perón": 8293,
      "calauré": 8294,
      "health": 8295,
      "gris": 8296,
      "celtic": 8297,
      "belfast": 8298,
      "services": 8299,
      "anol": 8300,
      "karyo": 8301,
      "desig": 8302,
      "bala": 8303,
      "fergus": 8304,
      "walter": 8305,
      "walton": 8306,
      "gart": 8307,
      "tokine": 8308,
      "queen": 8309,
      "cytokine": 8310,
      "presen": 8311,
      "found": 8312,
      "here": 8313,
      "teles": 8314,
      "utc": 8315,
      "stanley": 8316,
      "graham": 8317,
      "norris": 8318,
      "ffen": 8319,
      "fuji": 8320,
      "ieee": 8321,
      "england": 8322,
      "bourbon": 8323,
      "1209": 8324,
      "hello": 8325,
      "shanghai": 8326,
      "neymar": 8327,
      "gauguin": 8328,
      "austral": 8329,
      "ements": 8330,
      "tủa": 8331,
      "nouvelle": 8332,
      "subroutine": 8333,
      "virgin": 8334,
      "aristoteles": 8335,
      "bismarck": 8336,
      "gaelic": 8337,
      "tainment": 8338,
      "street": 8339,
      "johannes": 8340,
      "baccalauré": 8341,
      "brandenburg": 8342,
      "entertainment": 8343,
      "mexica": 8344,
      "capital": 8345,
      "michigan": 8346,
      "zidane": 8347,
      "gibraltar": 8348,
      "andorra": 8349,
      "diamond": 8350,
      "mikhail": 8351,
      "foreign": 8352,
      "ferguson": 8353,
      "baccalauréat": 8354,
      ".[": 8355,
      "119": 8356,
      "321": 8357,
      "410": 8358,
      "670": 8359,
      "780": 8360,
      "970": 8361,
      "?),": 8362,
      "]]": 8363,
      "a1": 8364,
      "avi": 8365,
      "bt": 8366,
      "bú": 8367,
      "cước": 8368,
      "cres": 8369,
      "d3": 8370,
      "dho": 8371,
      "fam": 8372,
      "g20": 8373,
      "găng": 8374,
      "gst": 8375,
      "hz": 8376,
      "hằn": 8377,
      "jang": 8378,
      "juku": 8379,
      "lúng": 8380,
      "lằn": 8381,
      "m3": 8382,
      "mả": 8383,
      "mụ": 8384,
      "mích": 8385,
      "méo": 8386,
      "nau": 8387,
      "nine": 8388,
      "pn": 8389,
      "pam": 8390,
      "ples": 8391,
      "pnas": 8392,
      "rụ": 8393,
      "rọi": 8394,
      "rốn": 8395,
      "spar": 8396,
      "ssure": 8397,
      "tột": 8398,
      "tcp": 8399,
      "vầy": 8400,
      "vặn": 8401,
      "vali": 8402,
      "wen": 8403,
      "wester": 8404,
      "zone": 8405,
      "zero": 8406,
      "éra": 8407,
      "ổm": 8408,
      "ỷu": 8409,
      "ngóc": 8410,
      "nhấm": 8411,
      "thre": 8412,
      "chiểu": 8413,
      "chun": 8414,
      "chẩm": 8415,
      "chẵn": 8416,
      "khar": 8417,
      "qur": 8418,
      "quáng": 8419,
      "quầng": 8420,
      "giông": 8421,
      "gioan": 8422,
      "anci": 8423,
      "ancial": 8424,
      "nghẹt": 8425,
      "rah": 8426,
      "intro": 8427,
      "lock": 8428,
      "tomé": 8429,
      "saussure": 8430,
      "ardo": 8431,
      "aris": 8432,
      "artifi": 8433,
      "contro": 8434,
      "khuỷu": 8435,
      "lucy": 8436,
      "emmanuel": 8437,
      "tata": 8438,
      "tuta": 8439,
      "imp": 8440,
      "vụng": 8441,
      "lahore": 8442,
      "buri": 8443,
      "ore": 8444,
      "suv": 8445,
      "suici": 8446,
      "hugo": 8447,
      "hugh": 8448,
      "tip": 8449,
      "tival": 8450,
      "matt": 8451,
      "182": 8452,
      "1829": 8453,
      "1852": 8454,
      "1028": 8455,
      "ries": 8456,
      "musa": 8457,
      "1738": 8458,
      "1743": 8459,
      "1751": 8460,
      "1754": 8461,
      "tepe": 8462,
      "size": 8463,
      "cade": 8464,
      "mili": 8465,
      "156": 8466,
      "159": 8467,
      "1546": 8468,
      "navar": 8469,
      "napoli": 8470,
      "1689": 8471,
      "bora": 8472,
      "147": 8473,
      "1414": 8474,
      "termin": 8475,
      "132": 8476,
      "1397": 8477,
      "patrick": 8478,
      "hyun": 8479,
      "kiev": 8480,
      "ced": 8481,
      "gover": 8482,
      "seg": 8483,
      "seti": 8484,
      "rub": 8485,
      "melo": 8486,
      "medi": 8487,
      "guja": 8488,
      "309": 8489,
      "mariana": 8490,
      "cannes": 8491,
      "mẹo": 8492,
      "parov": 8493,
      "film": 8494,
      "nol": 8495,
      "nov": 8496,
      "fore": 8497,
      "259": 8498,
      "urban": 8499,
      "atti": 8500,
      "joão": 8501,
      "]);": 8502,
      "rana": 8503,
      "kopa": 8504,
      "kobe": 8505,
      "words": 8506,
      "taira": 8507,
      "menu": 8508,
      "brah": 8509,
      "heuris": 8510,
      "delaware": 8511,
      "ftp": 8512,
      "analog": 8513,
      "guez": 8514,
      "leaks": 8515,
      "zebu": 8516,
      "sense": 8517,
      "service": 8518,
      "xoang": 8519,
      "logie": 8520,
      "dale": 8521,
      "minster": 8522,
      "1781": 8523,
      "1784": 8524,
      "thak": 8525,
      "1808": 8526,
      "palais": 8527,
      "harris": 8528,
      "jules": 8529,
      "myth": 8530,
      "prime": 8531,
      "581": 8532,
      "diode": 8533,
      "acre": 8534,
      "action": 8535,
      "africa": 8536,
      "939": 8537,
      "case": 8538,
      "caspi": 8539,
      "baidu": 8540,
      "louvre": 8541,
      "1406": 8542,
      "honshu": 8543,
      "gordon": 8544,
      "platon": 8545,
      "frankfur": 8546,
      "ernest": 8547,
      "polymer": 8548,
      "jorge": 8549,
      "kers": 8550,
      "mccar": 8551,
      "self": 8552,
      "computing": 8553,
      "blake": 8554,
      "objec": 8555,
      "schmid": 8556,
      "kasparov": 8557,
      "westminster": 8558,
      "cacbonic": 8559,
      "spam": 8560,
      "financial": 8561,
      "barack": 8562,
      "columbus": 8563,
      "shinjuku": 8564,
      "manden": 8565,
      "aceh": 8566,
      "schengen": 8567,
      "bernabeu": 8568,
      "bissau": 8569,
      "sassan": 8570,
      "chaldea": 8571,
      "mauritius": 8572,
      "touch": 8573,
      "festival": 8574,
      "jackson": 8575,
      "dolce": 8576,
      "icij": 8577,
      "krogh": 8578,
      "slide": 8579,
      "britannica": 8580,
      "hđh": 8581,
      "wirth": 8582,
      "hispanic": 8583,
      "scandina": 8584,
      "ontology": 8585,
      "fukuoka": 8586,
      "senegal": 8587,
      "library": 8588,
      "magnussen": 8589,
      "garden": 8590,
      "orange": 8591,
      "pirelli": 8592,
      "ietf": 8593,
      "marseille": 8594,
      "western": 8595,
      "introduction": 8596,
      "artificial": 8597,
      "frankfurt": 8598,
      "520": 8599,
      "530": 8600,
      "545": 8601,
      "548": 8602,
      "541": 8603,
      "945": 8604,
      "?)": 8605,
      "ater": 8606,
      "bới": 8607,
      "b12": 8608,
      "bbana": 8609,
      "cưng": 8610,
      "dà": 8611,
      "dnn": 8612,
      "ein": 8613,
      "eprom": 8614,
      "fr": 8615,
      "fus": 8616,
      "g8": 8617,
      "gọng": 8618,
      "ita": 8619,
      "ibra": 8620,
      "ike": 8621,
      "jai": 8622,
      "kb": 8623,
      "kram": 8624,
      "kell": 8625,
      "lg": 8626,
      "lèo": 8627,
      "lìa": 8628,
      "lõm": 8629,
      "omy": 8630,
      "pô": 8631,
      "pgs": 8632,
      "rc": 8633,
      "rn": 8634,
      "rà": 8635,
      "rer": 8636,
      "siết": 8637,
      "sưng": 8638,
      "swa": 8639,
      "tual": 8640,
      "vạ": 8641,
      "vỹ": 8642,
      "vung": 8643,
      "vắt": 8644,
      "úm": 8645,
      "đv": 8646,
      "ớc": 8647,
      "nhọ": 8648,
      "nhương": 8649,
      "nháy": 8650,
      "thỏ": 8651,
      "chau": 8652,
      "chắp": 8653,
      "chòi": 8654,
      "trám": 8655,
      "khản": 8656,
      "quạ": 8657,
      "query": 8658,
      "giàng": 8659,
      "giun": 8660,
      "thuý": 8661,
      "audi": 8662,
      "auck": 8663,
      "onia": 8664,
      "nhào": 8665,
      "index": 8666,
      "loch": 8667,
      "tov": 8668,
      "toạ": 8669,
      "tose": 8670,
      "saurus": 8671,
      "204": 8672,
      "uard": 8673,
      "unf": 8674,
      "xuồng": 8675,
      "theorem": 8676,
      "enri": 8677,
      "enko": 8678,
      "concor": 8679,
      "console": 8680,
      "tac": 8681,
      "đoài": 8682,
      "eswa": 8683,
      "cop": 8684,
      "vish": 8685,
      "eller": 8686,
      "chuồng": 8687,
      "khít": 8688,
      "map": 8689,
      "mati": 8690,
      "maas": 8691,
      "magaz": 8692,
      "187": 8693,
      "1072": 8694,
      "rizal": 8695,
      "1218": 8696,
      "1216": 8697,
      "1237": 8698,
      "1264": 8699,
      "1257": 8700,
      "thoạt": 8701,
      "recon": 8702,
      "171": 8703,
      "1730": 8704,
      "1721": 8705,
      "1744": 8706,
      "1732": 8707,
      "1758": 8708,
      "1759": 8709,
      "1753": 8710,
      "1757": 8711,
      "thing": 8712,
      "tee": 8713,
      "chief": 8714,
      "mitter": 8715,
      "user": 8716,
      "1517": 8717,
      "1521": 8718,
      "1542": 8719,
      "nak": 8720,
      "nation": 8721,
      "1650": 8722,
      "1638": 8723,
      "bow": 8724,
      "boer": 8725,
      "1441": 8726,
      "1449": 8727,
      "ded": 8728,
      "dee": 8729,
      "dah": 8730,
      "dahome": 8731,
      "sak": 8732,
      "pod": 8733,
      "moc": 8734,
      "modo": 8735,
      "nhớt": 8736,
      "haplo": 8737,
      "mea": 8738,
      "piai": 8739,
      "pixel": 8740,
      "piquet": 8741,
      "tradi": 8742,
      "304": 8743,
      "marcel": 8744,
      "mariner": 8745,
      "nicho": 8746,
      "nipp": 8747,
      "newell": 8748,
      "cardo": 8749,
      "cambo": 8750,
      "pucc": 8751,
      "gabbana": 8752,
      "formal": 8753,
      "ilia": 8754,
      "illin": 8755,
      "vers": 8756,
      "shim": 8757,
      "vocalo": 8758,
      "merina": 8759,
      "sons": 8760,
      "ette": 8761,
      "ress": 8762,
      "crown": 8763,
      "common": 8764,
      "torval": 8765,
      "hãnh": 8766,
      "minis": 8767,
      "986": 8768,
      "wallace": 8769,
      "garnier": 8770,
      "troy": 8771,
      "361": 8772,
      "kingdom": 8773,
      "pré": 8774,
      "burkina": 8775,
      "charlem": 8776,
      "ingrad": 8777,
      "gym": 8778,
      "afar": 8779,
      "hers": 8780,
      "herman": 8781,
      "hermann": 8782,
      "darfur": 8783,
      "castle": 8784,
      "kansai": 8785,
      "eries": 8786,
      "morgan": 8787,
      "kythera": 8788,
      "damas": 8789,
      "css": 8790,
      "transla": 8791,
      "agne": 8792,
      "simpson": 8793,
      "html5": 8794,
      "bloom": 8795,
      "cdc": 8796,
      "origin": 8797,
      "jeju": 8798,
      "1707": 8799,
      "laure": 8800,
      "josep": 8801,
      "kelantan": 8802,
      "chaigneau": 8803,
      "akkadian": 8804,
      "logos": 8805,
      "languages": 8806,
      "nissan": 8807,
      "antikythera": 8808,
      "commun": 8809,
      "venezia": 8810,
      "müller": 8811,
      "alphabet": 8812,
      "challe": 8813,
      "evolutionary": 8814,
      "while": 8815,
      "about": 8816,
      "justinian": 8817,
      "carolina": 8818,
      "sebasti": 8819,
      "function": 8820,
      "tablet": 8821,
      "tōkyō": 8822,
      "cappucc": 8823,
      "nickel": 8824,
      "synth": 8825,
      "pongo": 8826,
      "holocen": 8827,
      "andrés": 8828,
      "carthago": 8829,
      "original": 8830,
      "brooklyn": 8831,
      "sidwell": 8832,
      "nikolai": 8833,
      "academ": 8834,
      "altair": 8835,
      "vostok": 8836,
      "clinton": 8837,
      "personal": 8838,
      "shikibu": 8839,
      "abdul": 8840,
      "bronx": 8841,
      "comoros": 8842,
      "semantic": 8843,
      "athena": 8844,
      "document": 8845,
      "emperor": 8846,
      "shelley": 8847,
      "empire": 8848,
      "pacific": 8849,
      "batavia": 8850,
      "scandinavia": 8851,
      "ibrahim": 8852,
      "auckland": 8853,
      "eswatini": 8854,
      "magazine": 8855,
      "dahomey": 8856,
      "nippon": 8857,
      "illinois": 8858,
      "vocaloid": 8859,
      "torvalds": 8860,
      "charlemagne": 8861,
      "cappuccino": 8862,
      "(.": 8863,
      ")\"": 8864,
      ")).": 8865,
      ",,": 8866,
      "318": 8867,
      "316": 8868,
      "340": 8869,
      "470": 8870,
      "432": 8871,
      "468": 8872,
      "570": 8873,
      "aer": 8874,
      "aden": 8875,
      "bh": 8876,
      "búp": 8877,
      "băm": 8878,
      "cấn": 8879,
      "dn": 8880,
      "dji": 8881,
      "dns": 8882,
      "dwana": 8883,
      "duar": 8884,
      "fau": 8885,
      "gü": 8886,
      "ganh": 8887,
      "gượng": 8888,
      "gầy": 8889,
      "gène": 8890,
      "hòm": 8891,
      "héc": 8892,
      "iro": 8893,
      "jona": 8894,
      "kw": 8895,
      "kang": 8896,
      "kern": 8897,
      "lút": 8898,
      "mướ": 8899,
      "mập": 8900,
      "nứa": 8901,
      "nbc": 8902,
      "ophi": 8903,
      "otho": 8904,
      "ppe": 8905,
      "pina": 8906,
      "rs": 8907,
      "rdo": 8908,
      "rắm": 8909,
      "sv": 8910,
      "sính": 8911,
      "semi": 8912,
      "sport": 8913,
      "vưu": 8914,
      "vor": 8915,
      "whis": 8916,
      "xán": 8917,
      "xẩm": 8918,
      "yển": 8919,
      "zona": 8920,
      "zzo": 8921,
      "ān": 8922,
      "đt": 8923,
      "đụn": 8924,
      "đờn": 8925,
      "ngậy": 8926,
      "ngấm": 8927,
      "ngỗng": 8928,
      "chải": 8929,
      "trạc": 8930,
      "trọc": 8931,
      "tras": 8932,
      "quầy": 8933,
      "gib": 8934,
      "gie": 8935,
      "giương": 8936,
      "ườm": 8937,
      "anna": 8938,
      "hob": 8939,
      "how": 8940,
      "host": 8941,
      "rado": 8942,
      "ont": 8943,
      "intera": 8944,
      "door": 8945,
      "dores": 8946,
      "tomo": 8947,
      "bịa": 8948,
      "xui": 8949,
      "arm": 8950,
      "archa": 8951,
      "cons": 8952,
      "content": 8953,
      "altepe": 8954,
      "luẩn": 8955,
      "emmy": 8956,
      "taxon": 8957,
      "taksin": 8958,
      "core": 8959,
      "coron": 8960,
      "copt": 8961,
      "socc": 8962,
      "solini": 8963,
      "baker": 8964,
      "baptis": 8965,
      "last": 8966,
      "bulle": 8967,
      "suárez": 8968,
      "bantam": 8969,
      "hui": 8970,
      "hus": 8971,
      "hume": 8972,
      "tigris": 8973,
      "magy": 8974,
      "mahara": 8975,
      "1813": 8976,
      "1825": 8977,
      "1823": 8978,
      "1845": 8979,
      "1836": 8980,
      "lingu": 8981,
      "ride": 8982,
      "muse": 8983,
      "rex": 8984,
      "1755": 8985,
      "1766": 8986,
      "1769": 8987,
      "1763": 8988,
      "chiang": 8989,
      "miao": 8990,
      "167": 8991,
      "1688": 8992,
      "1664": 8993,
      "1657": 8994,
      "boxing": 8995,
      "1435": 8996,
      "tern": 8997,
      "1351": 8998,
      "1394": 8999,
      "...;": 9000,
      "ínci": 9001,
      "path": 9002,
      "vía": 9003,
      "víu": 9004,
      "rule": 9005,
      "genesis": 9006,
      "pita": 9007,
      "picas": 9008,
      "pizza": 9009,
      "305": 9010,
      "wey": 9011,
      "cil": 9012,
      "cio": 9013,
      "camera": 9014,
      "bic": 9015,
      "cks": 9016,
      "gaku": 9017,
      "facto": 9018,
      "foreman": 9019,
      "very": 9020,
      "verdun": 9021,
      "2500": 9022,
      "sharif": 9023,
      "joan": 9024,
      "245": 9025,
      "donau": 9026,
      "236": 9027,
      "275": 9028,
      "279": 9029,
      "285": 9030,
      "265": 9031,
      "monde": 9032,
      "wing": 9033,
      "wick": 9034,
      "malcol": 9035,
      "russel": 9036,
      "osman": 9037,
      "osse": 9038,
      "torres": 9039,
      "staten": 9040,
      "stadt": 9041,
      "wade": 9042,
      "champs": 9043,
      "453": 9044,
      "feren": 9045,
      ",...).": 9046,
      "thaksin": 9047,
      "1809": 9048,
      "palm": 9049,
      "exam": 9050,
      "electric": 9051,
      "982": 9052,
      "gary": 9053,
      "hart": 9054,
      "deria": 9055,
      "voice": 9056,
      "971": 9057,
      "prínci": 9058,
      "quebec": 9059,
      "valley": 9060,
      "access": 9061,
      "four": 9062,
      "cast": 9063,
      "utau": 9064,
      "ross": 9065,
      "rosario": 9066,
      "frey": 9067,
      "fregate": 9068,
      "arizona": 9069,
      "pictures": 9070,
      "1401": 9071,
      "northern": 9072,
      "tings": 9073,
      "moritz": 9074,
      "prius": 9075,
      "dorf": 9076,
      "simo": 9077,
      "lorer": 9078,
      "fritz": 9079,
      "lars": 9080,
      "gondwana": 9081,
      "floren": 9082,
      "show": 9083,
      "chennai": 9084,
      "biological": 9085,
      "sulfat": 9086,
      "studio": 9087,
      "gaule": 9088,
      "kash": 9089,
      "catalonia": 9090,
      "auguste": 9091,
      "1138": 9092,
      "store": 9093,
      "wells": 9094,
      "bouti": 9095,
      "granada": 9096,
      "mussolini": 9097,
      "keynes": 9098,
      "metropolitan": 9099,
      "ethanol": 9100,
      "philosophi": 9101,
      "battuta": 9102,
      "watergate": 9103,
      "tuabin": 9104,
      "cultural": 9105,
      "vtv1": 9106,
      "graphic": 9107,
      "graphics": 9108,
      "vietnamese": 9109,
      "jenson": 9110,
      "hemoglobin": 9111,
      "wright": 9112,
      "omega": 9113,
      "marché": 9114,
      "chloride": 9115,
      "ichiro": 9116,
      "rơm": 9117,
      "energy": 9118,
      "algeria": 9119,
      "kiribati": 9120,
      "scuderia": 9121,
      "châtel": 9122,
      "explorer": 9123,
      "brothers": 9124,
      "estrogen": 9125,
      "moustier": 9126,
      "insulin": 9127,
      "gujarat": 9128,
      "djibouti": 9129,
      "duarte": 9130,
      "kernel": 9131,
      "mướn": 9132,
      "altepetl": 9133,
      "soccer": 9134,
      "bulletin": 9135,
      "magyar": 9136,
      "malcolm": 9137,
      "príncipe": 9138,
      "(~": 9139,
      ")-": 9140,
      ")\",": 9141,
      "--": 9142,
      ".),": 9143,
      "328": 9144,
      "412": 9145,
      "460": 9146,
      "514": 9147,
      "870": 9148,
      "931": 9149,
      "<<": 9150,
      "ata": 9151,
      "acha": 9152,
      "age": 9153,
      "búi": 9154,
      "búa": 9155,
      "bmw": 9156,
      "dí": 9157,
      "dìm": 9158,
      "dẳng": 9159,
      "ete": 9160,
      "fai": 9161,
      "fel": 9162,
      "fas": 9163,
      "gt": 9164,
      "gong": 9165,
      "gla": 9166,
      "grau": 9167,
      "hét": 9168,
      "hali": 9169,
      "hcm": 9170,
      "ik": 9171,
      "jet": 9172,
      "jvod": 9173,
      "kay": 9174,
      "knu": 9175,
      "lặt": 9176,
      "mấu": 9177,
      "mọn": 9178,
      "n1": 9179,
      "niết": 9180,
      "nand": 9181,
      "nãy": 9182,
      "osi": 9183,
      "oxi": 9184,
      "ology": 9185,
      "pao": 9186,
      "râm": 9187,
      "rầm": 9188,
      "sả": 9189,
      "sấy": 9190,
      "ssey": 9191,
      "story": 9192,
      "snow": 9193,
      "tc": 9194,
      "tễ": 9195,
      "uta": 9196,
      "ure": 9197,
      "vữa": 9198,
      "wu": 9199,
      "xiên": 9200,
      "xao": 9201,
      "yong": 9202,
      "²).": 9203,
      "ély": 9204,
      "école": 9205,
      "ím": 9206,
      "đọa": 9207,
      "đốm": 9208,
      "đrô": 9209,
      "ửng": 9210,
      "thar": 9211,
      "this": 9212,
      "ches": 9213,
      "chron": 9214,
      "chĩa": 9215,
      "phông": 9216,
      "quỵ": 9217,
      "giu": 9218,
      "anari": 9219,
      "anthro": 9220,
      "homer": 9221,
      "hoff": 9222,
      "ame": 9223,
      "raj": 9224,
      "loo": 9225,
      "logue": 9226,
      "toron": 9227,
      "eok": 9228,
      "ere": 9229,
      "diff": 9230,
      "entes": 9231,
      "alco": 9232,
      "alha": 9233,
      "luang": 9234,
      "emens": 9235,
      "taek": 9236,
      "tucky": 9237,
      "copy": 9238,
      "cobol": 9239,
      "vius": 9240,
      "ims": 9241,
      "bag": 9242,
      "baden": 9243,
      "roc": 9244,
      "isht": 9245,
      "duỗi": 9246,
      "oran": 9247,
      "hiđrô": 9248,
      "tific": 9249,
      "1811": 9250,
      "1866": 9251,
      "1854": 9252,
      "andal": 9253,
      "1069": 9254,
      "lip": 9255,
      "ligue": 9256,
      "rij": 9257,
      "1224": 9258,
      "1260": 9259,
      "1280": 9260,
      "1252": 9261,
      "represen": 9262,
      "1720": 9263,
      "1772": 9264,
      "1749": 9265,
      "quýt": 9266,
      "mike": 9267,
      "tya": 9268,
      "1550": 9269,
      "1525": 9270,
      "1548": 9271,
      "1572": 9272,
      "1624": 9273,
      "1621": 9274,
      "1631": 9275,
      "1634": 9276,
      "1655": 9277,
      "1651": 9278,
      "1653": 9279,
      "1691": 9280,
      "borough": 9281,
      "1413": 9282,
      "1430": 9283,
      "1490": 9284,
      "1488": 9285,
      "1469": 9286,
      "dez": 9287,
      "deen": 9288,
      "delou": 9289,
      "136": 9290,
      "139": 9291,
      "1360": 9292,
      "1392": 9293,
      "satsu": 9294,
      "mannheim": 9295,
      "kiyo": 9296,
      "good": 9297,
      "sei": 9298,
      "sex": 9299,
      "sedan": 9300,
      "mogul": 9301,
      "vasumi": 9302,
      "meh": 9303,
      "metan": 9304,
      "berger": 9305,
      "trat": 9306,
      "303": 9307,
      "marino": 9308,
      "marcos": 9309,
      "cano": 9310,
      "canxi": 9311,
      "niken": 9312,
      "cilia": 9313,
      "bed": 9314,
      "beha": 9315,
      "being": 9316,
      "ckle": 9317,
      "ckey": 9318,
      "pulitz": 9319,
      "faso": 9320,
      "forms": 9321,
      "illy": 9322,
      "nets": 9323,
      "253": 9324,
      "alian": 9325,
      "dinho": 9326,
      "proce": 9327,
      "atlan": 9328,
      "vojvod": 9329,
      "kom": 9330,
      "kota": 9331,
      "ryan": 9332,
      "ryuk": 9333,
      "sys": 9334,
      "294": 9335,
      "802": 9336,
      "hea": 9337,
      "toria": 9338,
      "ogra": 9339,
      "statis": 9340,
      "scotia": 9341,
      "serb": 9342,
      "serra": 9343,
      "khứu": 9344,
      "dent": 9345,
      "ttg": 9346,
      "ids": 9347,
      "paleo": 9348,
      "385": 9349,
      "483": 9350,
      "485": 9351,
      "token": 9352,
      "leno": 9353,
      "philips": 9354,
      "479": 9355,
      "charlie": 9356,
      "acer": 9357,
      "ayak": 9358,
      "darlac": 9359,
      "xxxx": 9360,
      "salman": 9361,
      "graphy": 9362,
      "dòm": 9363,
      "priest": 9364,
      "kentucky": 9365,
      "abs": 9366,
      "guadelou": 9367,
      "chóp": 9368,
      "agri": 9369,
      "leopold": 9370,
      "neural": 9371,
      "sargon": 9372,
      "++.": 9373,
      "laurent": 9374,
      "magma": 9375,
      "moss": 9376,
      "clip": 9377,
      "bengali": 9378,
      "florida": 9379,
      "voltaire": 9380,
      "maratha": 9381,
      "chatbot": 9382,
      "omist": 9383,
      "drs": 9384,
      "virtual": 9385,
      "mammal": 9386,
      "based": 9387,
      "next": 9388,
      "golfer": 9389,
      "haricot": 9390,
      "economist": 9391,
      "archive": 9392,
      "leiden": 9393,
      "scientific": 9394,
      "antananari": 9395,
      "shamash": 9396,
      "tivity": 9397,
      "smartphone": 9398,
      "galaxy": 9399,
      "reagan": 9400,
      "australopithecus": 9401,
      "goethe": 9402,
      "gerald": 9403,
      "distribu": 9404,
      "tasmania": 9405,
      "narita": 9406,
      "selection": 9407,
      "sachsen": 9408,
      "bradbury": 9409,
      "mamluk": 9410,
      "industri": 9411,
      "voyager": 9412,
      "odyssey": 9413,
      "design": 9414,
      "ancient": 9415,
      "suicide": 9416,
      "attila": 9417,
      "sassanid": 9418,
      "concorde": 9419,
      "mitterrand": 9420,
      "ossetia": 9421,
      "florentino": 9422,
      "élysé": 9423,
      "toronto": 9424,
      "alhazen": 9425,
      "ishtar": 9426,
      "vasumitra": 9427,
      "vojvodina": 9428,
      "ryukyu": 9429,
      "guadeloupe": 9430,
      "antananarivo": 9431,
      "\"-": 9432,
      "%);": 9433,
      "312": 9434,
      "438": 9435,
      "580": 9436,
      "640": 9437,
      "713": 9438,
      "722": 9439,
      "747": 9440,
      "880": 9441,
      "866": 9442,
      "990": 9443,
      "967": 9444,
      ":,": 9445,
      "[[": 9446,
      "apo": 9447,
      "ape": 9448,
      "bm": 9449,
      "bợ": 9450,
      "bẹp": 9451,
      "bít": 9452,
      "blai": 9453,
      "bứt": 9454,
      "bris": 9455,
      "bish": 9456,
      "cỗi": 9457,
      "cpi": 9458,
      "cbs": 9459,
      "diệc": 9460,
      "dden": 9461,
      "ffrey": 9462,
      "gpl": 9463,
      "iu": 9464,
      "iec": 9465,
      "jong": 9466,
      "lôn": 9467,
      "lsi": 9468,
      "mdp": 9469,
      "n2": 9470,
      "nải": 9471,
      "nách": 9472,
      "nvi": 9473,
      "nậu": 9474,
      "nim": 9475,
      "nist": 9476,
      "oánh": 9477,
      "pci": 9478,
      "puni": 9479,
      "rp": 9480,
      "rót": 9481,
      "rfc": 9482,
      "rnn": 9483,
      "s2": 9484,
      "sg": 9485,
      "sành": 9486,
      "sướng": 9487,
      "sám": 9488,
      "scan": 9489,
      "sủa": 9490,
      "vr": 9491,
      "vau": 9492,
      "vái": 9493,
      "vine": 9494,
      "yalta": 9495,
      "zhi": 9496,
      "²),": 9497,
      "ísimo": 9498,
      "úl": 9499,
      "đơ": 9500,
      "ngửa": 9501,
      "nhài": 9502,
      "nhằng": 9503,
      "nhầy": 9504,
      "thau": 9505,
      "thcs": 9506,
      "thằn": 9507,
      "chơn": 9508,
      "trơ": 9509,
      "tren": 9510,
      "trút": 9511,
      "khaz": 9512,
      "quel": 9513,
      "giơ": 9514,
      "ging": 9515,
      "uyff": 9516,
      "choang": 9517,
      "chola": 9518,
      "hova": 9519,
      "amy": 9520,
      "ốctan": 9521,
      "raúl": 9522,
      "angle": 9523,
      "mào": 9524,
      "inka": 9525,
      "info": 9526,
      "totte": 9527,
      "dic": 9528,
      "dient": 9529,
      "differ": 9530,
      "enli": 9531,
      "enig": 9532,
      "confe": 9533,
      "lute": 9534,
      "luís": 9535,
      "emira": 9536,
      "tag": 9537,
      "tate": 9538,
      "taka": 9539,
      "tahar": 9540,
      "tational": 9541,
      "tuốc": 9542,
      "tuval": 9543,
      "vira": 9544,
      "elíp": 9545,
      "bachev": 9546,
      "labs": 9547,
      "isse": 9548,
      "bumi": 9549,
      "ord": 9550,
      "orlé": 9551,
      "suzu": 9552,
      "banking": 9553,
      "nguỵ": 9554,
      "higgs": 9555,
      "tica": 9556,
      "mak": 9557,
      "maja": 9558,
      "1846": 9559,
      "1843": 9560,
      "lithium": 9561,
      "1231": 9562,
      "1232": 9563,
      "thomp": 9564,
      "requ": 9565,
      "173": 9566,
      "1712": 9567,
      "1731": 9568,
      "1798": 9569,
      "1748": 9570,
      "1762": 9571,
      "tea": 9572,
      "teng": 9573,
      "siro": 9574,
      "ussia": 9575,
      "158": 9576,
      "1529": 9577,
      "1551": 9578,
      "nabo": 9579,
      "1629": 9580,
      "1656": 9581,
      "bohr": 9582,
      "149": 9583,
      "depart": 9584,
      "1350": 9585,
      "tane": 9586,
      "poe": 9587,
      "pahit": 9588,
      "valo": 9589,
      "mec": 9590,
      "pira": 9591,
      "traf": 9592,
      "308": 9593,
      "margar": 9594,
      "nio": 9595,
      "weber": 9596,
      "newfound": 9597,
      "civic": 9598,
      "toni": 9599,
      "before": 9600,
      "biden": 9601,
      "bird": 9602,
      "puma": 9603,
      "gaa": 9604,
      "gaki": 9605,
      "format": 9606,
      "kah": 9607,
      "verde": 9608,
      "251": 9609,
      "vey": 9610,
      "246": 9611,
      "1007": 9612,
      "mers": 9613,
      "604": 9614,
      "229": 9615,
      "venice": 9616,
      "403": 9617,
      "bard": 9618,
      "231": 9619,
      "232": 9620,
      "maine": 9621,
      "2879": 9622,
      "hama": 9623,
      "266": 9624,
      "268": 9625,
      "resour": 9626,
      "291": 9627,
      "295": 9628,
      "299": 9629,
      "rail": 9630,
      "sana": 9631,
      "mayr": 9632,
      "hera": 9633,
      "anata": 9634,
      "commit": 9635,
      "kee": 9636,
      "kek": 9637,
      "check": 9638,
      "tors": 9639,
      "stade": 9640,
      "anders": 9641,
      "ronaldinho": 9642,
      "logies": 9643,
      "winston": 9644,
      "vani": 9645,
      "advan": 9646,
      "1785": 9647,
      "italy": 9648,
      "989": 9649,
      "ders": 9650,
      "neanderthalensis": 9651,
      "cyren": 9652,
      "cyani": 9653,
      "589": 9654,
      "grande": 9655,
      "dravarman": 9656,
      "benjam": 9657,
      "tendo": 9658,
      "1403": 9659,
      "warren": 9660,
      "gradient": 9661,
      "dassler": 9662,
      "vinci": 9663,
      "brin": 9664,
      "brian": 9665,
      "gorbachev": 9666,
      "prize": 9667,
      "place": 9668,
      "macau": 9669,
      "hydrocarbon": 9670,
      "1306": 9671,
      "1308": 9672,
      "1206": 9673,
      "zio": 9674,
      "cruyff": 9675,
      "ultra": 9676,
      "bosna": 9677,
      "middle": 9678,
      "gilbert": 9679,
      "marxist": 9680,
      "nsf": 9681,
      "mitsub": 9682,
      "premium": 9683,
      "superocean": 9684,
      "internationale": 9685,
      "korea": 9686,
      "sulfide": 9687,
      "haskell": 9688,
      "huawei": 9689,
      "capet": 9690,
      "antioch": 9691,
      "nơron": 9692,
      "granth": 9693,
      "germanic": 9694,
      "memori": 9695,
      "channel": 9696,
      "barak": 9697,
      "1164": 9698,
      "highbury": 9699,
      "highlands": 9700,
      "courcy": 9701,
      "puská": 9702,
      "betawi": 9703,
      "generalísimo": 9704,
      "sharia": 9705,
      "keita": 9706,
      "beckham": 9707,
      "culture": 9708,
      "graphit": 9709,
      "bướu": 9710,
      "karachi": 9711,
      "kirch": 9712,
      "tanaka": 9713,
      "haddon": 9714,
      "melanin": 9715,
      "río": 9716,
      "switch": 9717,
      "esarhaddon": 9718,
      "fairs": 9719,
      "nintendo": 9720,
      "symbo": 9721,
      "origins": 9722,
      "tonga": 9723,
      "years": 9724,
      "humbaba": 9725,
      "communica": 9726,
      "piston": 9727,
      "structure": 9728,
      "sergey": 9729,
      "classification": 9730,
      "calcutta": 9731,
      "blanc": 9732,
      "khalifa": 9733,
      "heysel": 9734,
      "chandra": 9735,
      "population": 9736,
      "québec": 9737,
      "trekking": 9738,
      "histoire": 9739,
      "wolfgang": 9740,
      "terminal": 9741,
      "enrique": 9742,
      "nicholas": 9743,
      "cambodia": 9744,
      "sebastião": 9745,
      "maharashtra": 9746,
      "achaemen": 9747,
      "bishkek": 9748,
      "nvidia": 9749,
      "punic": 9750,
      "tottenham": 9751,
      "enigma": 9752,
      "emirates": 9753,
      "taharqa": 9754,
      "tuvalu": 9755,
      "orléans": 9756,
      "majapahit": 9757,
      "thompson": 9758,
      "department": 9759,
      "margaret": 9760,
      "newfoundland": 9761,
      "committee": 9762,
      "cyanide": 9763,
      "benjamin": 9764,
      "mitsubishi": 9765,
      "puskás": 9766,
      "(“": 9767,
      "314": 9768,
      "32000": 9769,
      "345": 9770,
      "375": 9771,
      "395": 9772,
      "477": 9773,
      "5g": 9774,
      "510": 9775,
      "527": 9776,
      "571": 9777,
      "578": 9778,
      "539": 9779,
      "569": 9780,
      "620": 9781,
      "627": 9782,
      "720": 9783,
      "845": 9784,
      "]\".": 9785,
      "aa": 9786,
      "ade": 9787,
      "aber": 9788,
      "akhen": 9789,
      "aero": 9790,
      "bb": 9791,
      "bậy": 9792,
      "cưa": 9793,
      "cía": 9794,
      "cđv": 9795,
      "d2": 9796,
      "dẻ": 9797,
      "dine": 9798,
      "elo": 9799,
      "equi": 9800,
      "euron": 9801,
      "fly": 9802,
      "fall": 9803,
      "hũ": 9804,
      "hông": 9805,
      "hộc": 9806,
      "hởi": 9807,
      "ial": 9808,
      "ile": 9809,
      "iri": 9810,
      "jay": 9811,
      "kao": 9812,
      "kle": 9813,
      "kris": 9814,
      "kundi": 9815,
      "lốc": 9816,
      "lcd": 9817,
      "lửng": 9818,
      "mph": 9819,
      "mương": 9820,
      "nệ": 9821,
      "nment": 9822,
      "oy": 9823,
      "psi": 9824,
      "pdp": 9825,
      "rèm": 9826,
      "rớt": 9827,
      "sê": 9828,
      "sạ": 9829,
      "sờ": 9830,
      "ssi": 9831,
      "sẩy": 9832,
      "shor": 9833,
      "tnh": 9834,
      "tiển": 9835,
      "tơi": 9836,
      "txt": 9837,
      "vít": 9838,
      "whe": 9839,
      "where": 9840,
      "zai": 9841,
      "zhu": 9842,
      "zhe": 9843,
      "zhang": 9844,
      "zbol": 9845,
      "³/": 9846,
      "íguez": 9847,
      "ño": 9848,
      "ngùng": 9849,
      "nhs": 9850,
      "nhòa": 9851,
      "thỉ": 9852,
      "thốc": 9853,
      "thrace": 9854,
      "chro": 9855,
      "chiếng": 9856,
      "trin": 9857,
      "phết": 9858,
      "quở": 9859,
      "gini": 9860,
      "gium": 9861,
      "ank": 9862,
      "anto": 9863,
      "córdo": 9864,
      "hots": 9865,
      "honor": 9866,
      "hockey": 9867,
      "aise": 9868,
      "rahman": 9869,
      "thuỳ": 9870,
      "ayr": 9871,
      "auri": 9872,
      "audio": 9873,
      "sửng": 9874,
      "tiếu": 9875,
      "indu": 9876,
      "inno": 9877,
      "inclu": 9878,
      "lotus": 9879,
      "dok": 9880,
      "toả": 9881,
      "toái": 9882,
      "dison": 9883,
      "theodor": 9884,
      "array": 9885,
      "ents": 9886,
      "altay": 9887,
      "alter": 9888,
      "alps": 9889,
      "alain": 9890,
      "luc": 9891,
      "lusi": 9892,
      "ember": 9893,
      "tapan": 9894,
      "tudor": 9895,
      "cott": 9896,
      "codd": 9897,
      "coast": 9898,
      "cochin": 9899,
      "mangan": 9900,
      "bash": 9901,
      "ror": 9902,
      "roll": 9903,
      "rout": 9904,
      "rodr": 9905,
      "roseau": 9906,
      "buk": 9907,
      "buil": 9908,
      "suf": 9909,
      "sury": 9910,
      "banks": 9911,
      "hide": 9912,
      "tio": 9913,
      "leng": 9914,
      "mapu": 9915,
      "184": 9916,
      "1826": 9917,
      "1837": 9918,
      "1844": 9919,
      "1863": 9920,
      "1021": 9921,
      "1070": 9922,
      "1066": 9923,
      "lix": 9924,
      "rig": 9925,
      "philli": 9926,
      "muk": 9927,
      "muon": 9928,
      "mugh": 9929,
      "1294": 9930,
      "astu": 9931,
      "thoán": 9932,
      "ref": 9933,
      "rep": 9934,
      "republic": 9935,
      "174": 9936,
      "1718": 9937,
      "1725": 9938,
      "1756": 9939,
      "teen": 9940,
      "chips": 9941,
      "sig": 9942,
      "sippi": 9943,
      "siemens": 9944,
      "miro": 9945,
      "1595": 9946,
      "1597": 9947,
      "1585": 9948,
      "1594": 9949,
      "nati": 9950,
      "1615": 9951,
      "1625": 9952,
      "1639": 9953,
      "1649": 9954,
      "1652": 9955,
      "1410": 9956,
      "1424": 9957,
      "dead": 9958,
      "dap": 9959,
      "138": 9960,
      "1318": 9961,
      "1337": 9962,
      "1367": 9963,
      "1381": 9964,
      "sava": 9965,
      "tani": 9966,
      "sứa": 9967,
      "pom": 9968,
      "pou": 9969,
      "pover": 9970,
      "pav": 9971,
      "patter": 9972,
      "cei": 9973,
      "tricht": 9974,
[...]
